{
  "version": "1.0",
  "truncation": null,
  "padding": null,
  "added_tokens": [
    {
      "id": 0,
      "content": "<pad>",
      "single_word": false,
      "lstrip": false,
      "rstrip": false,
      "normalized": false,
      "special": true
    },
    {
      "id": 1,
      "content": "<bos>",
      "single_word": false,
      "lstrip": false,
      "rstrip": false,
      "normalized": false,
      "special": true
    },
    {
      "id": 2,
      "content": "<eos>",
      "single_word": false,
      "lstrip": false,
      "rstrip": false,
      "normalized": false,
      "special": true
    },
    {
      "id": 3,
      "content": "<unk>",
      "single_word": false,
      "lstrip": false,
      "rstrip": false,
      "normalized": false,
      "special": true
    }
  ],
  "normalizer": {
    "type": "NFC"
  },
  "pre_tokenizer": {
    "type": "ByteLevel",
    "add_prefix_space": false,
    "trim_offsets": true,
    "use_regex": true
  },
  "post_processor": null,
  "decoder": {
    "type": "ByteLevel",
    "add_prefix_space": true,
    "trim_offsets": true,
    "use_regex": true
  },
  "model": {
    "type": "BPE",
    "dropout": null,
    "unk_token": "<unk>",
    "continuing_subword_prefix": null,
    "end_of_word_suffix": null,
    "fuse_unk": false,
    "byte_fallback": false,
    "ignore_merges": false,
    "vocab": {
      "<pad>": 0,
      "<bos>": 1,
      "<eos>": 2,
      "<unk>": 3,
      "!": 4,
      "\"": 5,
      "#": 6,
      "$": 7,
      "%": 8,
      "&": 9,
      "'": 10,
      "(": 11,
      ")": 12,
      "*": 13,
      "+": 14,
      ",": 15,
      "-": 16,
      ".": 17,
      "/": 18,
      "0": 19,
      "1": 20,
      "2": 21,
      "3": 22,
      "4": 23,
      "5": 24,
      "6": 25,
      "7": 26,
      "8": 27,
      "9": 28,
      ":": 29,
      ";": 30,
      "<": 31,
      "=": 32,
      ">": 33,
      "?": 34,
      "@": 35,
      "A": 36,
      "B": 37,
      "C": 38,
      "D": 39,
      "E": 40,
      "F": 41,
      "G": 42,
      "H": 43,
      "I": 44,
      "J": 45,
      "K": 46,
      "L": 47,
      "M": 48,
      "N": 49,
      "O": 50,
      "P": 51,
      "Q": 52,
      "R": 53,
      "S": 54,
      "T": 55,
      "U": 56,
      "V": 57,
      "W": 58,
      "X": 59,
      "Y": 60,
      "Z": 61,
      "[": 62,
      "\\": 63,
      "]": 64,
      "^": 65,
      "_": 66,
      "`": 67,
      "a": 68,
      "b": 69,
      "c": 70,
      "d": 71,
      "e": 72,
      "f": 73,
      "g": 74,
      "h": 75,
      "i": 76,
      "j": 77,
      "k": 78,
      "l": 79,
      "m": 80,
      "n": 81,
      "o": 82,
      "p": 83,
      "q": 84,
      "r": 85,
      "s": 86,
      "t": 87,
      "u": 88,
      "v": 89,
      "w": 90,
      "x": 91,
      "y": 92,
      "z": 93,
      "{": 94,
      "|": 95,
      "}": 96,
      "~": 97,
      "¡": 98,
      "¢": 99,
      "£": 100,
      "¤": 101,
      "¥": 102,
      "¦": 103,
      "§": 104,
      "¨": 105,
      "©": 106,
      "ª": 107,
      "«": 108,
      "¬": 109,
      "®": 110,
      "¯": 111,
      "°": 112,
      "±": 113,
      "²": 114,
      "³": 115,
      "´": 116,
      "µ": 117,
      "¶": 118,
      "·": 119,
      "¸": 120,
      "¹": 121,
      "º": 122,
      "»": 123,
      "¼": 124,
      "½": 125,
      "¾": 126,
      "¿": 127,
      "À": 128,
      "Á": 129,
      "Â": 130,
      "Ã": 131,
      "Ä": 132,
      "Å": 133,
      "Æ": 134,
      "Ç": 135,
      "È": 136,
      "É": 137,
      "Ê": 138,
      "Ë": 139,
      "Ì": 140,
      "Í": 141,
      "Î": 142,
      "Ï": 143,
      "Ð": 144,
      "Ñ": 145,
      "Ò": 146,
      "Ó": 147,
      "Ô": 148,
      "Õ": 149,
      "Ö": 150,
      "×": 151,
      "Ø": 152,
      "Ù": 153,
      "Ú": 154,
      "Û": 155,
      "Ü": 156,
      "Ý": 157,
      "Þ": 158,
      "ß": 159,
      "à": 160,
      "á": 161,
      "â": 162,
      "ã": 163,
      "ä": 164,
      "å": 165,
      "æ": 166,
      "ç": 167,
      "è": 168,
      "é": 169,
      "ê": 170,
      "ë": 171,
      "ì": 172,
      "í": 173,
      "î": 174,
      "ï": 175,
      "ð": 176,
      "ñ": 177,
      "ò": 178,
      "ó": 179,
      "ô": 180,
      "õ": 181,
      "ö": 182,
      "÷": 183,
      "ø": 184,
      "ù": 185,
      "ú": 186,
      "û": 187,
      "ü": 188,
      "ý": 189,
      "þ": 190,
      "ÿ": 191,
      "Ā": 192,
      "ā": 193,
      "Ă": 194,
      "ă": 195,
      "Ą": 196,
      "ą": 197,
      "Ć": 198,
      "ć": 199,
      "Ĉ": 200,
      "ĉ": 201,
      "Ċ": 202,
      "ċ": 203,
      "Č": 204,
      "č": 205,
      "Ď": 206,
      "ď": 207,
      "Đ": 208,
      "đ": 209,
      "Ē": 210,
      "ē": 211,
      "Ĕ": 212,
      "ĕ": 213,
      "Ė": 214,
      "ė": 215,
      "Ę": 216,
      "ę": 217,
      "Ě": 218,
      "ě": 219,
      "Ĝ": 220,
      "ĝ": 221,
      "Ğ": 222,
      "ğ": 223,
      "Ġ": 224,
      "ġ": 225,
      "Ģ": 226,
      "ģ": 227,
      "Ĥ": 228,
      "ĥ": 229,
      "Ħ": 230,
      "ħ": 231,
      "Ĩ": 232,
      "ĩ": 233,
      "Ī": 234,
      "ī": 235,
      "Ĭ": 236,
      "ĭ": 237,
      "Į": 238,
      "į": 239,
      "İ": 240,
      "ı": 241,
      "Ĳ": 242,
      "ĳ": 243,
      "Ĵ": 244,
      "ĵ": 245,
      "Ķ": 246,
      "ķ": 247,
      "ĸ": 248,
      "Ĺ": 249,
      "ĺ": 250,
      "Ļ": 251,
      "ļ": 252,
      "Ľ": 253,
      "ľ": 254,
      "Ŀ": 255,
      "ŀ": 256,
      "Ł": 257,
      "ł": 258,
      "Ń": 259,
      "th": 260,
      "Ġth": 261,
      "Ġthe": 262,
      "Ġa": 263,
      "nd": 264,
      "Ġs": 265,
      "Ġo": 266,
      "Ġw": 267,
      "Ġh": 268,
      "in": 269,
      "re": 270,
      "Ġand": 271,
      "Ġof": 272,
      "er": 273,
      "Ġb": 274,
      "to": 275,
      "Ġf": 276,
      "ou": 277,
      "ll": 278,
      "is": 279,
      "en": 280,
      "Ġm": 281,
      "or": 282,
      "at": 283,
      "Ġc": 284,
      "es": 285,
      "on": 286,
      "ĠA": 287,
      "ed": 288,
      "Ġd": 289,
      "Ġu": 290,
      "ing": 291,
      "Ġp": 292,
      "ea": 293,
      "Ġin": 294,
      "Ġto": 295,
      "Ġn": 296,
      "it": 297,
      "Ġbe": 298,
      "Ġwh": 299,
      "ha": 300,
      "Ġwi": 301,
      "Ġthat": 302,
      "Ġha": 303,
      "om": 304,
      "ĠAnd": 305,
      "an": 306,
      "Ġy": 307,
      "ĠI": 308,
      "Ġl": 309,
      "ve": 310,
      "Ġg": 311,
      "se": 312,
      "ay": 313,
      "id": 314,
      "Ġun": 315,
      "Ġfor": 316,
      "ĠL": 317,
      "st": 318,
      "im": 319,
      "Ġno": 320,
      "ĠT": 321,
      "Ġt": 322,
      "Ġsha": 323,
      "Ġunto": 324,
      "Ġhe": 325,
      "Ġis": 326,
      "ut": 327,
      "ĠTh": 328,
      "ld": 329,
      "gh": 330,
      "Ġthey": 331,
      "ar": 332,
      "Ġsa": 333,
      "Ġshall": 334,
      "Ġthem": 335,
      "ch": 336,
      "as": 337,
      "ir": 338,
      "ow": 339,
      "le": 340,
      "Ġe": 341,
      "ĠH": 342,
      "Ġnot": 343,
      "ere": 344,
      "am": 345,
      "Ġit": 346,
      "od": 347,
      "el": 348,
      "Ġwith": 349,
      "ear": 350,
      "ce": 351,
      "ver": 352,
      "Ġhis": 353,
      "ght": 354,
      "Ġhim": 355,
      "ah": 356,
      "Ġk": 357,
      "ri": 358,
      "ra": 359,
      "ent": 360,
      "Ġyou": 361,
      "RD": 362,
      "ORD": 363,
      "ĠLORD": 364,
      "Ġre": 365,
      "ĠJ": 366,
      "eth": 367,
      "et": 368,
      "ĠM": 369,
      "il": 370,
      "Ġall": 371,
      "ord": 372,
      "ur": 373,
      "ĠS": 374,
      "ĠG": 375,
      "Ġup": 376,
      "Ġwill": 377,
      "ion": 378,
      "ther": 379,
      "Ġon": 380,
      "Ġthou": 381,
      "ore": 382,
      "Ġthere": 383,
      "Ġye": 384,
      "Ġwas": 385,
      "Ġas": 386,
      "Ġfr": 387,
      "Ġtheir": 388,
      "ro": 389,
      "and": 390,
      "ke": 391,
      "Ġhave": 392,
      "Ġsaid": 393,
      "Ġwhi": 394,
      "ain": 395,
      "ven": 396,
      "Ġfrom": 397,
      "ad": 398,
      "est": 399,
      "ĠB": 400,
      "Ġare": 401,
      "Ġan": 402,
      "Ġme": 403,
      "Ġcom": 404,
      "ess": 405,
      "Ġwhich": 406,
      "ĠW": 407,
      "Ġ'": 408,
      "if": 409,
      "us": 410,
      "Ġman": 411,
      "Ġfa": 412,
      "Ġthy": 413,
      "ĠGod": 414,
      "hi": 415,
      "Ġse": 416,
      "ĠHe": 417,
      "Ġwho": 418,
      "au": 419,
      "Ġthee": 420,
      "Ġgo": 421,
      "fore": 422,
      "Ġson": 423,
      "ame": 424,
      "Ġmy": 425,
      "ly": 426,
      "ho": 427,
      "ĠIs": 428,
      "Ġking": 429,
      "Ġsh": 430,
      "Ġst": 431,
      "ter": 432,
      "Ġwhen": 433,
      "Ġsp": 434,
      "al": 435,
      "Ġbut": 436,
      "Ġwere": 437,
      ".'": 438,
      "Ġ(": 439,
      "ĠAll": 440,
      "ive": 441,
      "ight": 442,
      "Ġupon": 443,
      "ers": 444,
      "Ġhath": 445,
      "Ġdo": 446,
      "ie": 447,
      "ĠThe": 448,
      "op": 449,
      "Ġday": 450,
      "rael": 451,
      "ĠIsrael": 452,
      "Ġout": 453,
      "ĠAllah": 454,
      "ation": 455,
      "Ġby": 456,
      "ren": 457,
      "ĠE": 458,
      "Ġwe": 459,
      "ĠO": 460,
      "lt": 461,
      "Ġsay": 462,
      "ck": 463,
      "rou": 464,
      "ake": 465,
      "our": 466,
      "of": 467,
      "Ġyour": 468,
      "pt": 469,
      "ĠF": 470,
      "Ġhear": 471,
      "Ġthis": 472,
      "ong": 473,
      "so": 474,
      "eop": 475,
      "ith": 476,
      "Ġhou": 477,
      "Ġpeop": 478,
      "Ġca": 479,
      "red": 480,
      "Ġchi": 481,
      "ings": 482,
      "Ġag": 483,
      "ant": 484,
      "Ġhad": 485,
      "Ġv": 486,
      "ĠD": 487,
      "em": 488,
      "sel": 489,
      "Ġkn": 490,
      "ru": 491,
      "ĠLord": 492,
      "Ġagain": 493,
      "Ġone": 494,
      "urn": 495,
      "ose": 496,
      "Ġam": 497,
      "Ġcame": 498,
      "ab": 499,
      "ard": 500,
      "ine": 501,
      "Ġher": 502,
      "Ġpeople": 503,
      "Ġhand": 504,
      "Ġal": 505,
      "os": 506,
      "ud": 507,
      "Ġhouse": 508,
      "ph": 509,
      "la": 510,
      "ĠP": 511,
      "Ġever": 512,
      "ness": 513,
      "Ġab": 514,
      "Ġbefore": 515,
      "ot": 516,
      "Ġus": 517,
      "ok": 518,
      "Ġcome": 519,
      "Ġland": 520,
      "ĠN": 521,
      "Ġchild": 522,
      "ould": 523,
      "Ġcon": 524,
      "Ġinto": 525,
      "Ġknow": 526,
      "one": 527,
      "ĠFor": 528,
      "Ġmen": 529,
      "ade": 530,
      "Ġaf": 531,
      "Ġat": 532,
      "Ġear": 533,
      "Ġhea": 534,
      "ity": 535,
      "Ġwor": 536,
      "Ġsu": 537,
      "Ġde": 538,
      "Ġso": 539,
      "ause": 540,
      "Ġmade": 541,
      "Ġchildren": 542,
      "Ġagainst": 543,
      "Ġpro": 544,
      "ĠC": 545,
      "Ġlo": 546,
      "ill": 547,
      "ct": 548,
      "Ġri": 549,
      "'s": 550,
      "ass": 551,
      "Ġor": 552,
      "ol": 553,
      "ind": 554,
      "own": 555,
      "ge": 556,
      "reat": 557,
      "Ġne": 558,
      "fer": 559,
      "ered": 560,
      "Ġli": 561,
      "Ġpr": 562,
      "Ġj": 563,
      "Ġbec": 564,
      "ĠBut": 565,
      "Ġshe": 566,
      "Ġfather": 567,
      "hold": 568,
      "Ġtw": 569,
      "ĠMy": 570,
      "Ġif": 571,
      "Ġmay": 572,
      "out": 573,
      "Ġser": 574,
      "ak": 575,
      "av": 576,
      "ĠWe": 577,
      "ĠHis": 578,
      "ul": 579,
      "nt": 580,
      "Ġeven": 581,
      "ish": 582,
      "Ġalso": 583,
      "res": 584,
      "ell": 585,
      "Ġthen": 586,
      "ĠThou": 587,
      "Ġover": 588,
      "ise": 589,
      "Ġthose": 590,
      "Ġar": 591,
      "ath": 592,
      "Ġbre": 593,
      "ep": 594,
      "Ġho": 595,
      "pp": 596,
      "ous": 597,
      "Ġwent": 598,
      "ide": 599,
      "Ġafter": 600,
      "ies": 601,
      "ĠThen": 602,
      "Ġdid": 603,
      "ice": 604,
      "Ġearth": 605,
      "Ġsaith": 606,
      "Ġsaying": 607,
      "iah": 608,
      "Ġevery": 609,
      "Ġdown": 610,
      "ĠThy": 611,
      "ved": 612,
      "Ġour": 613,
      "Ġword": 614,
      "Ġbr": 615,
      "Ġshalt": 616,
      "Ġlet": 617,
      "Ġbel": 618,
      "ist": 619,
      "led": 620,
      "Ġmake": 621,
      "ves": 622,
      "Ġbl": 623,
      "Ġthings": 624,
      "avid": 625,
      "ĠDavid": 626,
      "Ġsons": 627,
      "Ġhast": 628,
      "Ġac": 629,
      "les": 630,
      "ward": 631,
      "ted": 632,
      "ment": 633,
      "Ġright": 634,
      "ig": 635,
      "Ġaw": 636,
      "Ġwhat": 637,
      "Ġcomm": 638,
      "ure": 639,
      "Ġthereof": 640,
      "um": 641,
      "ces": 642,
      "Ġserv": 643,
      "ount": 644,
      "qu": 645,
      "orn": 646,
      "Ġwhere": 647,
      "ĠWh": 648,
      "Ġwhom": 649,
      "Ġgreat": 650,
      "Ġpla": 651,
      "ĠLo": 652,
      "Ġgive": 653,
      "vil": 654,
      "ast": 655,
      "Ġbecause": 656,
      "Ġsee": 657,
      "ale": 658,
      "Ġgood": 659,
      "Ġdis": 660,
      "Ġpass": 661,
      "Ġheart": 662,
      "Ġnor": 663,
      "ire": 664,
      "Ġforth": 665,
      "ĠR": 666,
      "lea": 667,
      "rought": 668,
      "oth": 669,
      "ither": 670,
      "ĠJer": 671,
      "ry": 672,
      "oses": 673,
      "Ġsou": 674,
      "Ġdea": 675,
      "Ġacc": 676,
      "Ġsw": 677,
      "Ġsin": 678,
      "Ġamong": 679,
      "Ġaway": 680,
      "ĠAb": 681,
      "ations": 682,
      "Ġbelie": 683,
      "ĠMoses": 684,
      "ac": 685,
      "all": 686,
      "ome": 687,
      "Ġpri": 688,
      "Ġoff": 689,
      "ance": 690,
      "self": 691,
      "Ġyear": 692,
      "ham": 693,
      "Ġname": 694,
      "Ġfo": 695,
      "ic": 696,
      "Ġway": 697,
      "ĠJud": 698,
      "Ġthese": 699,
      "Ġput": 700,
      "Ġservant": 701,
      "Ġbrought": 702,
      "Ġshould": 703,
      "wn": 704,
      "Ġcall": 705,
      "Ġany": 706,
      "ĠJe": 707,
      "nder": 708,
      "Ġbring": 709,
      "ate": 710,
      "Ġco": 711,
      "igh": 712,
      "ime": 713,
      "ĠZ": 714,
      "Ġwat": 715,
      "Ġmight": 716,
      "Ġpriest": 717,
      "Ġset": 718,
      "ound": 719,
      "Ġtwo": 720,
      "ite": 721,
      "ree": 722,
      "aught": 723,
      "ĠAs": 724,
      "Ġsto": 725,
      "fering": 726,
      "Ġtru": 727,
      "Ġsent": 728,
      "Ġcity": 729,
      "ĠSo": 730,
      "ĠJes": 731,
      "Ġr": 732,
      "Ġevil": 733,
      "Ġwork": 734,
      "other": 735,
      "ied": 736,
      "ĠHim": 737,
      "Ġcommand": 738,
      "ĠJudah": 739,
      "âĢ": 740,
      "un": 741,
      "Ġlif": 742,
      "ording": 743,
      "Ġheaven": 744,
      "Ġlike": 745,
      "ef": 746,
      "Ġdays": 747,
      "Ġla": 748,
      "ether": 749,
      "alem": 750,
      "ĠJerus": 751,
      "Ġthan": 752,
      "Ġaccording": 753,
      "he": 754,
      "ĠJerusalem": 755,
      "Ġbu": 756,
      "eak": 757,
      "itt": 758,
      "Ġbehold": 759,
      "Ġex": 760,
      "Ġbro": 761,
      "be": 762,
      "ful": 763,
      "Ġeat": 764,
      "ave": 765,
      "Ġturn": 766,
      "Ġdw": 767,
      "art": 768,
      "ĠBe": 769,
      "ites": 770,
      "ĠJesus": 771,
      "Ġneither": 772,
      "und": 773,
      "cri": 774,
      "gy": 775,
      "Ġgl": 776,
      "Ġabout": 777,
      "Ġsm": 778,
      "Ġmore": 779,
      "Ġtake": 780,
      "Ġen": 781,
      "Ġmu": 782,
      "Ġrem": 783,
      "ign": 784,
      "selves": 785,
      "ĠEgy": 786,
      "ĠEgypt": 787,
      "oke": 788,
      "ily": 789,
      "Ġtook": 790,
      "Ġdel": 791,
      "ub": 792,
      "Ġown": 793,
      "ving": 794,
      "Ġke": 795,
      "ty": 796,
      "Ġnow": 797,
      "Ġwr": 798,
      "ĠMe": 799,
      "east": 800,
      "ence": 801,
      "ne": 802,
      "ood": 803,
      "dom": 804,
      "Ġwom": 805,
      "Ġper": 806,
      "ern": 807,
      "Ġtherefore": 808,
      "Ġplace": 809,
      "Ġro": 810,
      "vers": 811,
      "ken": 812,
      "ach": 813,
      "ng": 814,
      "eous": 815,
      "ĠK": 816,
      "Ġunder": 817,
      "rough": 818,
      "Ġba": 819,
      "ort": 820,
      "Ġdes": 821,
      "Ġcl": 822,
      "Ġapp": 823,
      "Ġwould": 824,
      "fe": 825,
      "iven": 826,
      "Ġfir": 827,
      "Ġproph": 828,
      "ber": 829,
      "Ġcha": 830,
      "ĠCh": 831,
      "Ġang": 832,
      "ĠThey": 833,
      "Ġey": 834,
      "oice": 835,
      "ue": 836,
      "Ġthrough": 837,
      "ever": 838,
      "Ġspeak": 839,
      "erc": 840,
      "aul": 841,
      "Ġpre": 842,
      "Ġgu": 843,
      "Ġsoul": 844,
      "ĠThere": 845,
      "Ġver": 846,
      "Ġcalled": 847,
      "een": 848,
      "Ġfl": 849,
      "Ġbet": 850,
      "ĠNow": 851,
      "ink": 852,
      "ried": 853,
      "oin": 854,
      "Ġhund": 855,
      "Ġhundred": 856,
      "?'": 857,
      "ĠWho": 858,
      "Ġrighteous": 859,
      "Ġtime": 860,
      "ob": 861,
      "Ġheard": 862,
      "Ġret": 863,
      "offering": 864,
      "rist": 865,
      "Ġfirst": 866,
      "sand": 867,
      "ead": 868,
      "Ġjud": 869,
      "Ġthousand": 870,
      "Ġra": 871,
      "Ġother": 872,
      "Ġburn": 873,
      "Ġbelieve": 874,
      "Ġpray": 875,
      "sw": 876,
      "ĠChrist": 877,
      "Ġseven": 878,
      "Ġfathers": 879,
      "ond": 880,
      "Ġyears": 881,
      "Ġsea": 882,
      "Ġfire": 883,
      "round": 884,
      "Ġbeg": 885,
      "âĢĶ": 886,
      "irit": 887,
      "Ġansw": 888,
      "Ġyet": 889,
      "ĠâĢĶ": 890,
      "Ġlife": 891,
      "li": 892,
      "ĠY": 893,
      "Ġdone": 894,
      "Ġreturn": 895,
      "Ġgiven": 896,
      "Ġcan": 897,
      "Ġbeen": 898,
      "Ġsaw": 899,
      "Ġdaught": 900,
      "eng": 901,
      "Ġhost": 902,
      "ble": 903,
      "Ġthing": 904,
      "Ġhead": 905,
      "ag": 906,
      "ĠAm": 907,
      "Ġdwell": 908,
      "Ġstr": 909,
      "Ġglor": 910,
      "Ġfound": 911,
      "Ġeyes": 912,
      "ost": 913,
      "ans": 914,
      "cked": 915,
      "Ġend": 916,
      "Ġgave": 917,
      "thren": 918,
      "ities": 919,
      "ust": 920,
      "me": 921,
      "Ġmount": 922,
      "Ġmany": 923,
      "ress": 924,
      "gether": 925,
      "oh": 926,
      "Ġfour": 927,
      "Ġdest": 928,
      "Ġconc": 929,
      "Ġbrethren": 930,
      "bel": 931,
      "Ġspoke": 932,
      "Ġkeep": 933,
      "Ġart": 934,
      "ĠThee": 935,
      "pen": 936,
      "Ġsl": 937,
      "Ġsave": 938,
      "Ġpl": 939,
      "Ġpart": 940,
      "Ġanother": 941,
      "Ġgold": 942,
      "ses": 943,
      "Ġwords": 944,
      "Ġtogether": 945,
      "are": 946,
      "Ġmea": 947,
      "hip": 948,
      "att": 949,
      "her": 950,
      "Ġholy": 951,
      "Ġthree": 952,
      "Ġmess": 953,
      "llow": 954,
      "alk": 955,
      "end": 956,
      "Ġprophet": 957,
      "Ġfe": 958,
      "soever": 959,
      "Ġtri": 960,
      "Ġhimself": 961,
      "Ġcapt": 962,
      "eace": 963,
      "ĠIf": 964,
      "Ġgra": 965,
      "Ġwar": 966,
      "Ġlaw": 967,
      "Th": 968,
      "tain": 969,
      "ower": 970,
      "ull": 971,
      "Ġhow": 972,
      "rink": 973,
      "Ġmerc": 974,
      "Ġnations": 975,
      "Ġcast": 976,
      "Ġonly": 977,
      "ci": 978,
      "outh": 979,
      "Ġcause": 980,
      "Ġblood": 981,
      "belie": 982,
      "lean": 983,
      "Ġtak": 984,
      "Ġthemselves": 985,
      "Ġhands": 986,
      "Ġfam": 987,
      "ock": 988,
      "Ġru": 989,
      "Ġalt": 990,
      "ised": 991,
      "ĠSaul": 992,
      "Ġvoice": 993,
      "Ġservants": 994,
      "Ġwater": 995,
      "Ġmesseng": 996,
      "Ġbes": 997,
      "Ġrep": 998,
      "ĠThus": 999,
      "Ġsword": 1000,
      "Ġold": 1001,
      "hab": 1002,
      "ner": 1003,
      "Ġaltar": 1004,
      "Ġpres": 1005,
      "Ġwicked": 1006,
      "roy": 1007,
      "Ġthir": 1008,
      "Ġlove": 1009,
      "Ġtherein": 1010,
      "Ġent": 1011,
      "Ġfaith": 1012,
      "Ġconcern": 1013,
      "ĠSh": 1014,
      "Ġbread": 1015,
      "Ġback": 1016,
      "lesh": 1017,
      "Ġtruth": 1018,
      "Ġfear": 1019,
      "Ġopen": 1020,
      "ĠPha": 1021,
      "Ġdestroy": 1022,
      "Ġhar": 1023,
      "Ġwithout": 1024,
      "Ġpeace": 1025,
      "Ġprin": 1026,
      "row": 1027,
      "Ġcities": 1028,
      "Ġdisbelie": 1029,
      "Ġcommanded": 1030,
      "Ġflesh": 1031,
      "Ġtre": 1032,
      ").": 1033,
      "Ġhigh": 1034,
      "ĠU": 1035,
      "ĠIn": 1036,
      "ction": 1037,
      "ather": 1038,
      "Ġmid": 1039,
      "And": 1040,
      "Ġmouth": 1041,
      "Ġits": 1042,
      "Ġdeath": 1043,
      "sp": 1044,
      "Ġbrother": 1045,
      "eb": 1046,
      "Ġdrink": 1047,
      "Ġconcerning": 1048,
      "Ġwalk": 1049,
      "Ġtoward": 1050,
      "Ġfall": 1051,
      "Ġcont": 1052,
      "iv": 1053,
      "Ġbo": 1054,
      "Ġface": 1055,
      "Ġglory": 1056,
      "els": 1057,
      "uch": 1058,
      "Ġside": 1059,
      "Ġunc": 1060,
      "Ġspirit": 1061,
      "Ġsc": 1062,
      "Ġworld": 1063,
      "Ġstand": 1064,
      "acob": 1065,
      "Ġwife": 1066,
      "ia": 1067,
      "Ġad": 1068,
      "ev": 1069,
      "ĠJacob": 1070,
      "ĠPh": 1071,
      "den": 1072,
      "aron": 1073,
      "ĠAaron": 1074,
      "Ġgod": 1075,
      "Ġcomp": 1076,
      "Ġanswered": 1077,
      "for": 1078,
      "Ġsil": 1079,
      "Ġnone": 1080,
      "ĠThis": 1081,
      "Ġjudg": 1082,
      "Ġsi": 1083,
      "Ġfollow": 1084,
      "Ġcar": 1085,
      "Ġlight": 1086,
      "ove": 1087,
      "ĠThat": 1088,
      "Ġsure": 1089,
      "Ġlook": 1090,
      "Ġunt": 1091,
      "enty": 1092,
      "Ġnight": 1093,
      "raoh": 1094,
      "Ġdead": 1095,
      "ield": 1096,
      "Ġforg": 1097,
      "Ġverily": 1098,
      "ished": 1099,
      "Ġuntil": 1100,
      "Ġthine": 1101,
      "ĠBehold": 1102,
      "Ġmidst": 1103,
      "ointed": 1104,
      "Ġreign": 1105,
      "Ġseek": 1106,
      "Ġbetw": 1107,
      "Ġlive": 1108,
      "ains": 1109,
      "ĠPharaoh": 1110,
      "ĠSay": 1111,
      "ĠWhen": 1112,
      "Ġmercy": 1113,
      "iver": 1114,
      "amp": 1115,
      "Ġtaken": 1116,
      "ĠPhil": 1117,
      "Ġbless": 1118,
      "ret": 1119,
      "Ġwhose": 1120,
      "Ġburnt": 1121,
      "with": 1122,
      "Ġqu": 1123,
      "Ġten": 1124,
      "Ġwoman": 1125,
      "ai": 1126,
      "age": 1127,
      "ship": 1128,
      "Ġim": 1129,
      "Ġround": 1130,
      "Ġmeet": 1131,
      "az": 1132,
      "Ġrece": 1133,
      "Ġbetween": 1134,
      "ĠAr": 1135,
      "Ġhosts": 1136,
      "Ġlef": 1137,
      "Ġpriests": 1138,
      "Ġleft": 1139,
      "ments": 1140,
      "ĠTherefore": 1141,
      "Ġsight": 1142,
      "Ġturned": 1143,
      "Ġsome": 1144,
      "lon": 1145,
      "ek": 1146,
      "hu": 1147,
      "Ġboth": 1148,
      "Ġfell": 1149,
      "ary": 1150,
      "Ġask": 1151,
      "Ġfive": 1152,
      "its": 1153,
      "Ġsec": 1154,
      "Ġenem": 1155,
      "omon": 1156,
      "Ġrest": 1157,
      "ĠSam": 1158,
      "venant": 1159,
      "Ġcometh": 1160,
      "olomon": 1161,
      "Ġcovenant": 1162,
      "itten": 1163,
      "oab": 1164,
      "Ġkings": 1165,
      "ec": 1166,
      "Ġkingdom": 1167,
      "Ġbeast": 1168,
      "Ġyoung": 1169,
      "Ġdep": 1170,
      "Ġmon": 1171,
      "Ġfield": 1172,
      "Ġbeing": 1173,
      "illed": 1174,
      "sed": 1175,
      "Ġbear": 1176,
      "ĠSolomon": 1177,
      "attle": 1178,
      "Wh": 1179,
      "Ġwild": 1180,
      "OD": 1181,
      "ĠGOD": 1182,
      "Ġsuch": 1183,
      "Ġsilver": 1184,
      "Ġdie": 1185,
      "Ġnum": 1186,
      "Ġthus": 1187,
      "Ġsle": 1188,
      "ĠLet": 1189,
      "raham": 1190,
      "Ġstood": 1191,
      "iqu": 1192,
      "ts": 1193,
      "vour": 1194,
      "Ġinc": 1195,
      "Ġiniqu": 1196,
      "ĠBen": 1197,
      "Ġmonth": 1198,
      "each": 1199,
      "Ġtent": 1200,
      "Ġsend": 1201,
      "ines": 1202,
      "ws": 1203,
      "Ġlea": 1204,
      "ledge": 1205,
      "Ġsame": 1206,
      "ions": 1207,
      "ĠOur": 1208,
      "Ġord": 1209,
      "ĠAbraham": 1210,
      "ĠLev": 1211,
      "Ġcut": 1212,
      "ĠBab": 1213,
      "Ġchief": 1214,
      "ĠPhilist": 1215,
      "Ġpur": 1216,
      "Ġdelive": 1217,
      "ylon": 1218,
      "Ġpo": 1219,
      "Ġlord": 1220,
      "ild": 1221,
      "read": 1222,
      "ĠBabylon": 1223,
      "Ġkind": 1224,
      "Ġhel": 1225,
      "ars": 1226,
      "Ġwrong": 1227,
      "ned": 1228,
      "Ġrighteousness": 1229,
      "Ġsurely": 1230,
      "Ġmother": 1231,
      "Ġcho": 1232,
      "Ġsacri": 1233,
      "ified": 1234,
      "olk": 1235,
      "ĠWhere": 1236,
      "Ġfull": 1237,
      "Ġsacrif": 1238,
      "Ġmine": 1239,
      "Ġcreat": 1240,
      "anct": 1241,
      "less": 1242,
      "Ġplea": 1243,
      "ark": 1244,
      "able": 1245,
      "Ġpower": 1246,
      "ĠRe": 1247,
      "oun": 1248,
      "ister": 1249,
      "eal": 1250,
      "Ġdaughter": 1251,
      "oss": 1252,
      "Ġhelp": 1253,
      "Ġinher": 1254,
      "Ġwa": 1255,
      "Ġremem": 1256,
      "The": 1257,
      "Ġpra": 1258,
      "Ġrej": 1259,
      "ile": 1260,
      "vel": 1261,
      "right": 1262,
      "stand": 1263,
      "ilt": 1264,
      "Ġseen": 1265,
      "Ġtwenty": 1266,
      "Ġheavens": 1267,
      "Ġinherit": 1268,
      "erness": 1269,
      "Ġtold": 1270,
      "Ġwhile": 1271,
      "ote": 1272,
      "Ġwilderness": 1273,
      "Ġyea": 1274,
      "oseph": 1275,
      "Ġdec": 1276,
      "Ġwaters": 1277,
      "Ġmighty": 1278,
      "Ġmult": 1279,
      "ron": 1280,
      "Ġspok": 1281,
      "Ġworks": 1282,
      "Ġcount": 1283,
      "Ġlong": 1284,
      "Ġgath": 1285,
      "cept": 1286,
      "ferings": 1287,
      "habit": 1288,
      "Ġdelivered": 1289,
      "Ġinhabit": 1290,
      "Ġfru": 1291,
      "Ġarm": 1292,
      "hamm": 1293,
      "bs": 1294,
      "ff": 1295,
      "Ġfolk": 1296,
      "ĠJos": 1297,
      "ew": 1298,
      "ese": 1299,
      "Ġseed": 1300,
      "su": 1301,
      "Ġ-": 1302,
      "han": 1303,
      "ĠJoseph": 1304,
      "ple": 1305,
      "Ġsanct": 1306,
      "Ġknowledge": 1307,
      "Ġsix": 1308,
      "Ġspoken": 1309,
      "ived": 1310,
      "Ġmuch": 1311,
      "mb": 1312,
      "ang": 1313,
      "elt": 1314,
      "Ġref": 1315,
      "Ġnear": 1316,
      "Ġcub": 1317,
      "Ġwell": 1318,
      "Ġsmote": 1319,
      "ĠPhilistines": 1320,
      "Ġfif": 1321,
      "ĠIt": 1322,
      "ĠYe": 1323,
      "ants": 1324,
      "ĠJews": 1325,
      "ĠBeth": 1326,
      "Ġprinces": 1327,
      "reth": 1328,
      "Ġthough": 1329,
      "gth": 1330,
      "Ġport": 1331,
      "ches": 1332,
      "rength": 1333,
      "Ġark": 1334,
      "Ġbord": 1335,
      "Ġlay": 1336,
      "ash": 1337,
      "âĢĻ": 1338,
      "uhamm": 1339,
      "Ġstrength": 1340,
      "Ġbuild": 1341,
      "Ġwomen": 1342,
      "uhammad": 1343,
      "oy": 1344,
      "zar": 1345,
      "Ġwit": 1346,
      "Ġgate": 1347,
      "Ġrev": 1348,
      "Ġdeliver": 1349,
      "ĠThese": 1350,
      "ps": 1351,
      "Ġbow": 1352,
      "Ġwritten": 1353,
      "Ġappointed": 1354,
      "Ġiniquity": 1355,
      "Ġind": 1356,
      "Ġprov": 1357,
      "cript": 1358,
      "Ġmessenger": 1359,
      "Ġgathered": 1360,
      "ĠJeho": 1361,
      "):": 1362,
      "ision": 1363,
      "ched": 1364,
      "Ġden": 1365,
      "Ġbecome": 1366,
      "Ġdaughters": 1367,
      "eed": 1368,
      "mon": 1369,
      "Ġwhole": 1370,
      "Ġhearken": 1371,
      "Ġhouses": 1372,
      "ning": 1373,
      "Ġsk": 1374,
      "ins": 1375,
      "Ġmak": 1376,
      "Ġmorn": 1377,
      "Ġtem": 1378,
      "Ġabove": 1379,
      "Ġunderstand": 1380,
      "Ġfeet": 1381,
      "sal": 1382,
      "Ġfind": 1383,
      "Ġdoor": 1384,
      "Ġcons": 1385,
      "Ġtr": 1386,
      "ail": 1387,
      "ick": 1388,
      "men": 1389,
      "Ġhor": 1390,
      "Ġgen": 1391,
      "ap": 1392,
      "itud": 1393,
      "Ġwilt": 1394,
      "Ġlaid": 1395,
      "ect": 1396,
      "Ġwis": 1397,
      "ĠEph": 1398,
      "Ġest": 1399,
      "Ġsat": 1400,
      "Ġcur": 1401,
      "Ġrec": 1402,
      "Ġprophets": 1403,
      "Ġtribe": 1404,
      "ns": 1405,
      "Ġmo": 1406,
      "Ġfruit": 1407,
      "kind": 1408,
      "ray": 1409,
      "Ġconf": 1410,
      "Ġunclean": 1411,
      "Ġwitness": 1412,
      "Ġworship": 1413,
      "Ġstrong": 1414,
      "Ġcour": 1415,
      "ĠHow": 1416,
      "Ġmorning": 1417,
      "esc": 1418,
      "Ġrevel": 1419,
      "ĠEli": 1420,
      "Ġgods": 1421,
      "hua": 1422,
      "over": 1423,
      "ĠShe": 1424,
      "ittle": 1425,
      "ks": 1426,
      "ĠFather": 1427,
      "thing": 1428,
      "Ġoffering": 1429,
      "ify": 1430,
      "ĠEl": 1431,
      "Ġknown": 1432,
      "Ġvery": 1433,
      "Ġposs": 1434,
      "Ġwise": 1435,
      "ertain": 1436,
      "offerings": 1437,
      "Ġwisdom": 1438,
      "oud": 1439,
      "Ġdre": 1440,
      "Ġpit": 1441,
      "Ġtell": 1442,
      "Ġaff": 1443,
      "Ġjust": 1444,
      "Ġdidst": 1445,
      "Ġgone": 1446,
      "cripture": 1447,
      "Ġgener": 1448,
      "itude": 1449,
      "),": 1450,
      "Ġwherein": 1451,
      "Ġguid": 1452,
      "ĠLevites": 1453,
      "Ġcubits": 1454,
      "ib": 1455,
      "Ġut": 1456,
      "Ġdoth": 1457,
      "ute": 1458,
      "iz": 1459,
      "Ġlittle": 1460,
      "Ġdwelt": 1461,
      "uel": 1462,
      "Ġtest": 1463,
      "Ġtill": 1464,
      "Ġres": 1465,
      "ĠSp": 1466,
      "ĠSha": 1467,
      "Ġangel": 1468,
      "Ġbeside": 1469,
      "Ġpossess": 1470,
      "Ġlest": 1471,
      "Ġyourselves": 1472,
      "Ġpeoples": 1473,
      "Ġenemies": 1474,
      "ots": 1475,
      "Ġknoweth": 1476,
      "ĠWhat": 1477,
      "Ġhearts": 1478,
      "Ġborder": 1479,
      "Ġwine": 1480,
      "ĠMan": 1481,
      "Ġreturned": 1482,
      "ĠJoshua": 1483,
      "omin": 1484,
      "rath": 1485,
      "oured": 1486,
      "Ġcould": 1487,
      "Ġcertain": 1488,
      "Ġdied": 1489,
      "Ġinheritance": 1490,
      "not": 1491,
      "Ġwall": 1492,
      "Ġmin": 1493,
      "Ġnothing": 1494,
      "Ġstri": 1495,
      "abl": 1496,
      "Ġdev": 1497,
      "Ġhold": 1498,
      "atter": 1499,
      "Ġdoom": 1500,
      "do": 1501,
      "Ġcoun": 1502,
      "Ġsal": 1503,
      "Ġthr": 1504,
      "ons": 1505,
      "essel": 1506,
      "Ġwind": 1507,
      "Ġvessel": 1508,
      "Ġsun": 1509,
      "sy": 1510,
      "ated": 1511,
      "Ġhere": 1512,
      "Ġcannot": 1513,
      "ee": 1514,
      "iel": 1515,
      "Ġtrust": 1516,
      "ged": 1517,
      "Ġgar": 1518,
      "Ġprom": 1519,
      "Ġplaces": 1520,
      "ney": 1521,
      "ired": 1522,
      "ought": 1523,
      "arden": 1524,
      "Ġjudge": 1525,
      "Ġid": 1526,
      "Ġhon": 1527,
      "reg": 1528,
      "Ġcry": 1529,
      "asse": 1530,
      "Ġjoy": 1531,
      "Ġwherewith": 1532,
      "Ġpresent": 1533,
      "Be": 1534,
      "the": 1535,
      "Ġbod": 1536,
      "Ġcong": 1537,
      "ealed": 1538,
      "raim": 1539,
      "Ġknew": 1540,
      "Ġtab": 1541,
      "Ġserve": 1542,
      "Ġtrans": 1543,
      "Ġcongreg": 1544,
      "sure": 1545,
      "ekiah": 1546,
      "Ġinhabitants": 1547,
      "Ġcongregation": 1548,
      "bered": 1549,
      "lse": 1550,
      "Ġlie": 1551,
      "ets": 1552,
      "ĠEs": 1553,
      "athan": 1554,
      "Ġbegot": 1555,
      "Ġfar": 1556,
      "Ġclean": 1557,
      "Ġdiv": 1558,
      "Ġchar": 1559,
      "Ġbetter": 1560,
      "Ġslain": 1561,
      "Ġfamil": 1562,
      "ians": 1563,
      "oil": 1564,
      "Ġoil": 1565,
      "Ġwrath": 1566,
      "Ġmanner": 1567,
      "Ġtwel": 1568,
      "Ġcloth": 1569,
      "Ġflock": 1570,
      "Ġestabl": 1571,
      "imon": 1572,
      "ĠCan": 1573,
      "Ġcontin": 1574,
      "Ġpoor": 1575,
      "Ġhill": 1576,
      "Ġread": 1577,
      "Ġshow": 1578,
      "Ġrevelations": 1579,
      "jah": 1580,
      "ĠMuhammad": 1581,
      "ĠBa": 1582,
      "Ġsins": 1583,
      "iving": 1584,
      "jam": 1585,
      "ereth": 1586,
      "ĠMine": 1587,
      "Ġindeed": 1588,
      "aiah": 1589,
      "ip": 1590,
      "Ġeast": 1591,
      "Ġpun": 1592,
      "Ġanger": 1593,
      "gress": 1594,
      "Ġter": 1595,
      "uty": 1596,
      "aster": 1597,
      "Ġcreated": 1598,
      "Ġpraise": 1599,
      "Ġmultitude": 1600,
      "Ġoffer": 1601,
      "Ġmankind": 1602,
      "Ġstat": 1603,
      "Ġbreak": 1604,
      "Ġfool": 1605,
      "Ġsacrifice": 1606,
      "ĠEphraim": 1607,
      "Ġutter": 1608,
      "Ġidol": 1609,
      "nes": 1610,
      "Ġhorn": 1611,
      "ird": 1612,
      "Ġreward": 1613,
      "Ġdark": 1614,
      "Ġground": 1615,
      "used": 1616,
      "Ġsheep": 1617,
      "Ġprep": 1618,
      "Ġmessengers": 1619,
      "Ġdisbelieve": 1620,
      "Ġjudgment": 1621,
      "Ġsecond": 1622,
      "Ġthrone": 1623,
      "ught": 1624,
      "Ġcried": 1625,
      "Ġspoil": 1626,
      "ourney": 1627,
      "Ġjourney": 1628,
      "Ġpassed": 1629,
      "Ġmountains": 1630,
      "ĠWherefore": 1631,
      "Ġrevealed": 1632,
      "fter": 1633,
      "Ġhid": 1634,
      "Ġbur": 1635,
      "Ġeld": 1636,
      "ĠDay": 1637,
      "Ġways": 1638,
      "Ġbook": 1639,
      "Ġtransgress": 1640,
      "Ġtong": 1641,
      "Ġnam": 1642,
      "ined": 1643,
      "Ġch": 1644,
      "Ġreigned": 1645,
      "Ġnumber": 1646,
      "Ġsing": 1647,
      "Ġmost": 1648,
      "ates": 1649,
      "Ġtim": 1650,
      "Ġblessed": 1651,
      "ĠBenjam": 1652,
      "aan": 1653,
      "aac": 1654,
      "ey": 1655,
      "ĠScripture": 1656,
      "Ġkept": 1657,
      "Ġdestroyed": 1658,
      "Ġmeeting": 1659,
      "oam": 1660,
      "Ġfore": 1661,
      "Ġwhether": 1662,
      "arted": 1663,
      "oney": 1664,
      "Ġthird": 1665,
      "aid": 1666,
      "med": 1667,
      "Ġinst": 1668,
      "Ġlam": 1669,
      "Ġram": 1670,
      "Ġfamilies": 1671,
      "ling": 1672,
      "haz": 1673,
      "ĠMoab": 1674,
      "Ġthyself": 1675,
      "';": 1676,
      "Ġwast": 1677,
      "ush": 1678,
      "Ġcommandment": 1679,
      "Ġbuilt": 1680,
      "Ġslew": 1681,
      "Behold": 1682,
      "Ġcamp": 1683,
      "Ġtouch": 1684,
      "Ġthanks": 1685,
      "Ġremain": 1686,
      "Ġchari": 1687,
      "ian": 1688,
      "ĠHo": 1689,
      "Ġwithin": 1690,
      "ages": 1691,
      "Ġreceive": 1692,
      "Ġtwelve": 1693,
      "vation": 1694,
      "orrow": 1695,
      "ĠAd": 1696,
      "Ġpie": 1697,
      "had": 1698,
      "urre": 1699,
      "Ġap": 1700,
      "Ġborn": 1701,
      "Ġbond": 1702,
      "Ġbattle": 1703,
      "Ġred": 1704,
      "ĠJon": 1705,
      "iful": 1706,
      "Ġprof": 1707,
      "riend": 1708,
      "Ġreb": 1709,
      "ĠJord": 1710,
      "Ġbroken": 1711,
      "Ġthirty": 1712,
      "ĠJordan": 1713,
      "ease": 1714,
      "ents": 1715,
      "Ġwhatsoever": 1716,
      "Ġgrace": 1717,
      "Ġbore": 1718,
      "esh": 1719,
      "Ġdra": 1720,
      "ĠNo": 1721,
      "Ġdisci": 1722,
      "Ġmeal": 1723,
      "Ġdeparted": 1724,
      "bb": 1725,
      "Ġsign": 1726,
      "Ġbea": 1727,
      "ton": 1728,
      "Ġnation": 1729,
      "Ġleave": 1730,
      "ened": 1731,
      "Ġhaving": 1732,
      "irc": 1733,
      "Ġfavour": 1734,
      "Ġtemple": 1735,
      "Ġpunish": 1736,
      "miah": 1737,
      "eter": 1738,
      "Ġliving": 1739,
      "Ġaffli": 1740,
      "Ġsalvation": 1741,
      "ĠBenjamin": 1742,
      "Ġgr": 1743,
      "Ġtra": 1744,
      "ĠGil": 1745,
      "Ġable": 1746,
      "Ġused": 1747,
      "Ġstone": 1748,
      "Ġstones": 1749,
      "Ġlifted": 1750,
      "Ġtrib": 1751,
      "cious": 1752,
      "ĠAram": 1753,
      "ĠSpirit": 1754,
      "Ġcontinu": 1755,
      "aph": 1756,
      "lf": 1757,
      "now": 1758,
      "iness": 1759,
      "ĠHam": 1760,
      "ĠWhi": 1761,
      "Ġservice": 1762,
      "alley": 1763,
      "Ġbull": 1764,
      "Ġbody": 1765,
      "ared": 1766,
      "ices": 1767,
      "oved": 1768,
      "ĠDan": 1769,
      "Ġswe": 1770,
      "Ġenter": 1771,
      "Ġreceived": 1772,
      "Ġrejoice": 1773,
      "Ġrefu": 1774,
      "Ġvessels": 1775,
      "band": 1776,
      "gue": 1777,
      "ror": 1778,
      "uary": 1779,
      "Ġcommit": 1780,
      "Ġnorth": 1781,
      "Ġbelieved": 1782,
      "Ġbelievers": 1783,
      "Ġglad": 1784,
      "Ġincre": 1785,
      "Ġox": 1786,
      "Ġfat": 1787,
      "ĠTo": 1788,
      "Ġcove": 1789,
      "Ġdesol": 1790,
      "Ġanswer": 1791,
      "ĠCanaan": 1792,
      "Ġteach": 1793,
      "ĠJere": 1794,
      "Ġthought": 1795,
      "usband": 1796,
      "Ġvine": 1797,
      "ĠPaul": 1798,
      "acle": 1799,
      "Ġbegan": 1800,
      "Ġfled": 1801,
      "Ġmar": 1802,
      "Ġcattle": 1803,
      "ĠSon": 1804,
      "ĠHez": 1805,
      "Ġsub": 1806,
      "unto": 1807,
      "Ġmust": 1808,
      "Ġpresence": 1809,
      "Ġcarried": 1810,
      "Ġaro": 1811,
      "Ġhusband": 1812,
      "Ġcompass": 1813,
      "Ġfifty": 1814,
      "Ġmaketh": 1815,
      "Ġtabern": 1816,
      "Ġarose": 1817,
      "born": 1818,
      "ieth": 1819,
      "Ġfriend": 1820,
      "Ġspread": 1821,
      "Ġfood": 1822,
      "Ġdecla": 1823,
      "Ġunderstanding": 1824,
      "uc": 1825,
      "Ġsupp": 1826,
      "Ġnever": 1827,
      "ĠZion": 1828,
      "Ġdesire": 1829,
      "Ġangels": 1830,
      "What": 1831,
      "ircum": 1832,
      "eem": 1833,
      "ious": 1834,
      "Ġful": 1835,
      "Ġfilled": 1836,
      "Ġwhosoever": 1837,
      "ĠOf": 1838,
      "ĠNeb": 1839,
      "Ġears": 1840,
      "Ġdarkness": 1841,
      "Ġelders": 1842,
      "sen": 1843,
      "Ġmind": 1844,
      "Ġpill": 1845,
      "Ġwives": 1846,
      "ĠThine": 1847,
      "ows": 1848,
      "Ġkill": 1849,
      "ĠJoab": 1850,
      "Ġbeasts": 1851,
      "Ġbullock": 1852,
      "ring": 1853,
      "ten": 1854,
      "Ġopp": 1855,
      "rer": 1856,
      "eans": 1857,
      "Ġoffered": 1858,
      "Ġwait": 1859,
      "Ġcounsel": 1860,
      "asseh": 1861,
      "ĠJeremiah": 1862,
      "ples": 1863,
      "Ġeach": 1864,
      "ely": 1865,
      "Ġstra": 1866,
      "ĠOn": 1867,
      "Ġclear": 1868,
      "Ġordin": 1869,
      "ircumc": 1870,
      "teen": 1871,
      "Ġfast": 1872,
      "Ġdesp": 1873,
      "ĠSamuel": 1874,
      "ĠManasseh": 1875,
      "vent": 1876,
      "Ġesc": 1877,
      "Ġhop": 1878,
      "Ġvalley": 1879,
      "Ġthroughout": 1880,
      "ĠHoly": 1881,
      "Ġescap": 1882,
      "Ġgather": 1883,
      "Ġbecame": 1884,
      "Ġprophes": 1885,
      "Ġchosen": 1886,
      "ĠV": 1887,
      "Ġgri": 1888,
      "ceed": 1889,
      "Ġneed": 1890,
      "Ġstrang": 1891,
      "Ġmountain": 1892,
      "Ġtabernacle": 1893,
      "ison": 1894,
      "Ġdri": 1895,
      "Ġnew": 1896,
      "Ġprayer": 1897,
      "Ġheads": 1898,
      "tor": 1899,
      "Ġsake": 1900,
      "ĠIsaac": 1901,
      "Ġstead": 1902,
      "ĠNay": 1903,
      "Ġthence": 1904,
      "Ġtimes": 1905,
      "ase": 1906,
      "man": 1907,
      "erve": 1908,
      "Ġcr": 1909,
      "Ġfalse": 1910,
      "Ġneigh": 1911,
      "Ġgiveth": 1912,
      "Ġsanctuary": 1913,
      "Ġcorn": 1914,
      "ĠAssy": 1915,
      "Ġremember": 1916,
      "ĠAssyri": 1917,
      "ba": 1918,
      "vail": 1919,
      "Ġfeast": 1920,
      "Ġpers": 1921,
      "Ġportion": 1922,
      "Ġminister": 1923,
      "oe": 1924,
      "Ġsister": 1925,
      "Ġfight": 1926,
      "Ġfine": 1927,
      "ĠAl": 1928,
      "iled": 1929,
      "Ġabomin": 1930,
      "Ġcloud": 1931,
      "Ġfamily": 1932,
      "ĠSamar": 1933,
      "Ġdisciples": 1934,
      "by": 1935,
      "bour": 1936,
      "per": 1937,
      "ult": 1938,
      "Ġcor": 1939,
      "ĠHere": 1940,
      "Ġsought": 1941,
      "Ġneighbour": 1942,
      "Ġhalf": 1943,
      "Ġtrou": 1944,
      "ĠOne": 1945,
      "umb": 1946,
      "Ġrepent": 1947,
      "Ġhonour": 1948,
      "rance": 1949,
      "raid": 1950,
      "ĠJo": 1951,
      "Ġdoeth": 1952,
      "Ġshek": 1953,
      "Ġpreach": 1954,
      "Ġopened": 1955,
      "Ġtongue": 1956,
      "up": 1957,
      "Ġdou": 1958,
      "Ġsabb": 1959,
      "ement": 1960,
      "Ġrose": 1961,
      "Ġgenerations": 1962,
      "ĠBaal": 1963,
      "Ġsabbath": 1964,
      "Ġmaster": 1965,
      "eared": 1966,
      "Ġfors": 1967,
      "Ġforty": 1968,
      "Ġass": 1969,
      "ift": 1970,
      "Ġcaused": 1971,
      "Ġafraid": 1972,
      "pped": 1973,
      "Ġbrass": 1974,
      "fect": 1975,
      "oint": 1976,
      "Ġslay": 1977,
      "Ġcompan": 1978,
      "Ġcourt": 1979,
      "ĠHezekiah": 1980,
      "Ġduty": 1981,
      "Ġforb": 1982,
      "Ġsaved": 1983,
      "Ġasse": 1984,
      "aked": 1985,
      "Go": 1986,
      "ners": 1987,
      "sha": 1988,
      "ures": 1989,
      "Ġinter": 1990,
      "Ġrel": 1991,
      "Ġwash": 1992,
      "Ġcover": 1993,
      "Ġrepro": 1994,
      "Ġasked": 1995,
      "bed": 1996,
      "mer": 1997,
      "ats": 1998,
      "idings": 1999,
      "ĠThose": 2000,
      "ĠGo": 2001,
      "ĠHeb": 2002,
      "Ġbelong": 2003,
      "ally": 2004,
      "Ġseas": 2005,
      "Ġprince": 2006,
      "Ġdisbelievers": 2007,
      "Ġnumbered": 2008,
      "Ġhope": 2009,
      "Ġhur": 2010,
      "isha": 2011,
      "hind": 2012,
      "Ġcaptain": 2013,
      "Ġtreas": 2014,
      "ĠSamaria": 2015,
      "after": 2016,
      "Ġbehind": 2017,
      "ivity": 2018,
      "cc": 2019,
      "als": 2020,
      "Ġabund": 2021,
      "ĠUn": 2022,
      "Ġadvers": 2023,
      "Ġlooked": 2024,
      "way": 2025,
      "ying": 2026,
      "Ġast": 2027,
      "Ġfur": 2028,
      "Ġtree": 2029,
      "Ġstill": 2030,
      "Ġspake": 2031,
      "ĠOr": 2032,
      "Ġdeed": 2033,
      "Ġraised": 2034,
      "ĠYet": 2035,
      "Ġrul": 2036,
      "Ġfulf": 2037,
      "ĠAssyria": 2038,
      "Ġlab": 2039,
      "sec": 2040,
      "Ġtidings": 2041,
      "ala": 2042,
      "ĠPeter": 2043,
      "Ġtestimon": 2044,
      "Ġer": 2045,
      "leth": 2046,
      "Ġgoeth": 2047,
      "Ġdef": 2048,
      "Ġdece": 2049,
      "Ġdevil": 2050,
      "Ġafterward": 2051,
      "Ġguard": 2052,
      "Ġdream": 2053,
      "ĠJonathan": 2054,
      "ware": 2055,
      "ense": 2056,
      "doers": 2057,
      "Ġburden": 2058,
      "Ġpieces": 2059,
      "uri": 2060,
      "Ġshame": 2061,
      "ighty": 2062,
      "pher": 2063,
      "Ġaccept": 2064,
      "Ġsouth": 2065,
      "Ġcaptivity": 2066,
      "Ġchur": 2067,
      "Let": 2068,
      "most": 2069,
      "Ġpure": 2070,
      "ances": 2071,
      "Ġstre": 2072,
      "ĠAmmon": 2073,
      "Ġsweet": 2074,
      "Ġastray": 2075,
      "pl": 2076,
      "osed": 2077,
      "last": 2078,
      "Ġwalked": 2079,
      "ĠWhich": 2080,
      "giving": 2081,
      "Ġfle": 2082,
      "Ġwhither": 2083,
      "Ġdisc": 2084,
      "hamed": 2085,
      "ication": 2086,
      "Ġrod": 2087,
      "Ġmeasure": 2088,
      "Ġhearkened": 2089,
      "Ġchariots": 2090,
      "sh": 2091,
      "Ġship": 2092,
      "ĠAh": 2093,
      "Ġpain": 2094,
      "Ġnigh": 2095,
      "Ġashamed": 2096,
      "Ġval": 2097,
      "Ġsound": 2098,
      "bey": 2099,
      "Ġsmite": 2100,
      "Ġrock": 2101,
      "Ġmoney": 2102,
      "Ġdist": 2103,
      "lech": 2104,
      "Ġseventh": 2105,
      "Ġenemy": 2106,
      "Ġcurse": 2107,
      "Ġoppress": 2108,
      "ael": 2109,
      "ced": 2110,
      "ayed": 2111,
      "elah": 2112,
      "alm": 2113,
      "ruction": 2114,
      "Ġabide": 2115,
      "Ġwhereof": 2116,
      "Ġtrue": 2117,
      "Ġbegin": 2118,
      "Ġharl": 2119,
      "Ġdepart": 2120,
      "oc": 2121,
      "old": 2122,
      "teth": 2123,
      "Ġheed": 2124,
      "Ġrequ": 2125,
      "ĠEdom": 2126,
      "Ġvi": 2127,
      "Ġvain": 2128,
      "ĠAbsal": 2129,
      "Ġappear": 2130,
      "Ġdeny": 2131,
      "Ġconsum": 2132,
      "ĠAbsalom": 2133,
      "ier": 2134,
      "te": 2135,
      "Ġcham": 2136,
      "Ġreach": 2137,
      "Ġupright": 2138,
      "Ġcoming": 2139,
      "Ġsep": 2140,
      "ĠWhy": 2141,
      "Ġsinned": 2142,
      "cribe": 2143,
      "Ġsouls": 2144,
      "Ġwickedness": 2145,
      "Ġcountry": 2146,
      "Ġhorses": 2147,
      "eech": 2148,
      "Ġrefuge": 2149,
      "For": 2150,
      "rom": 2151,
      "rate": 2152,
      "Ġwhy": 2153,
      "Ġsuff": 2154,
      "Ġlips": 2155,
      "Ġdelight": 2156,
      "Ġperish": 2157,
      "Ġhorse": 2158,
      "Ġassemb": 2159,
      "cause": 2160,
      "Ġact": 2161,
      "Ġsla": 2162,
      "Ġwro": 2163,
      "Ġdust": 2164,
      "Ġpath": 2165,
      "Ġnaught": 2166,
      "hath": 2167,
      "Ġgates": 2168,
      "ĠMerc": 2169,
      "oreover": 2170,
      "Ġshew": 2171,
      "Ġblind": 2172,
      "Ġenc": 2173,
      "Ġtribes": 2174,
      "Now": 2175,
      "Ġbound": 2176,
      "utes": 2177,
      "arm": 2178,
      "ards": 2179,
      "ĠJerob": 2180,
      "Ġfaithful": 2181,
      "Ġnames": 2182,
      "urrection": 2183,
      "ĠJeroboam": 2184,
      "dow": 2185,
      "Ġmatter": 2186,
      "ĠAn": 2187,
      "eath": 2188,
      "har": 2189,
      "phat": 2190,
      "ĠShall": 2191,
      "Ġstatutes": 2192,
      "Ġidols": 2193,
      "ĠGilead": 2194,
      "ls": 2195,
      "shi": 2196,
      "lem": 2197,
      "Ġeight": 2198,
      "Ġwatch": 2199,
      "Ġcommandments": 2200,
      "Ġcaptains": 2201,
      "Ġincrease": 2202,
      "Ġdesolate": 2203,
      "ĠHereafter": 2204,
      "Ġharlot": 2205,
      "ters": 2206,
      "Ġalone": 2207,
      "Ġsuf": 2208,
      "Ġrich": 2209,
      "Ġfoot": 2210,
      "ĠBecause": 2211,
      "Ġplain": 2212,
      "ĠJehoi": 2213,
      "Ġgarments": 2214,
      "Ġward": 2215,
      "Ġmis": 2216,
      "Ġmag": 2217,
      "host": 2218,
      "Ġshut": 2219,
      "laim": 2220,
      "lace": 2221,
      "Ġfeed": 2222,
      "Ġimp": 2223,
      "ealth": 2224,
      "Ġsit": 2225,
      "rew": 2226,
      "Ġlin": 2227,
      "ĠSe": 2228,
      "ourn": 2229,
      "ĠFire": 2230,
      "Ġrivers": 2231,
      "Ġexal": 2232,
      "Thus": 2233,
      "Ġloveth": 2234,
      "Ġsick": 2235,
      "Ġcharge": 2236,
      "Ġestablished": 2237,
      "Ġprepared": 2238,
      "ich": 2239,
      "ient": 2240,
      "wise": 2241,
      "Ġwest": 2242,
      "lly": 2243,
      "Ġgird": 2244,
      "Ġwhoso": 2245,
      "Ġbreast": 2246,
      "Ġburied": 2247,
      "Ġrain": 2248,
      "Ġfollowed": 2249,
      "salm": 2250,
      "Ġrebell": 2251,
      "Ġpillars": 2252,
      "lasting": 2253,
      "fort": 2254,
      "Ġbon": 2255,
      "Ġpast": 2256,
      "Ġtor": 2257,
      "Ġlion": 2258,
      "Ġlead": 2259,
      "ided": 2260,
      "eless": 2261,
      "iles": 2262,
      "Ġfaces": 2263,
      "Ġvan": 2264,
      "Ġproc": 2265,
      "Ġriver": 2266,
      "Ġplague": 2267,
      "Ġrise": 2268,
      "Ġfamine": 2269,
      "Ġrun": 2270,
      "Ġdrew": 2271,
      "Ġredeem": 2272,
      "Ġdeclare": 2273,
      "Ġhurt": 2274,
      "ĠMerciful": 2275,
      "Ġbones": 2276,
      "zer": 2277,
      "Ġcher": 2278,
      "Ġtown": 2279,
      "ĠTru": 2280,
      "Ġtar": 2281,
      "Ġanointed": 2282,
      "Ġfair": 2283,
      "ĠIsh": 2284,
      "Ġgreater": 2285,
      "Ġcond": 2286,
      "Ġoxen": 2287,
      "Ġflee": 2288,
      "ors": 2289,
      "Ġseeing": 2290,
      "ung": 2291,
      "Ġexceed": 2292,
      "ĠYea": 2293,
      "Ġlinen": 2294,
      "ds": 2295,
      "gs": 2296,
      "Ġwrought": 2297,
      "Ġgarden": 2298,
      "Ġones": 2299,
      "Ġstret": 2300,
      "Ġeverlasting": 2301,
      "umble": 2302,
      "Ġdisp": 2303,
      "ĠRem": 2304,
      "Ġforgive": 2305,
      "Ġpossession": 2306,
      "Ġpromise": 2307,
      "Ġready": 2308,
      "Ġafflict": 2309,
      "ough": 2310,
      "ĠAhab": 2311,
      "Ġnaked": 2312,
      "ilty": 2313,
      "Ġmanif": 2314,
      "Ġprison": 2315,
      "Ġentered": 2316,
      "Ġforgiven": 2317,
      "Ġguidance": 2318,
      "Ġcherub": 2319,
      "Ġir": 2320,
      "Ġobs": 2321,
      "Ġwealth": 2322,
      "Ġbed": 2323,
      "ĠGarden": 2324,
      "Ġbeloved": 2325,
      "ĠKn": 2326,
      "Ġothers": 2327,
      "Ġliveth": 2328,
      "Ġsleep": 2329,
      "Ġjustice": 2330,
      "ĠNoah": 2331,
      "Ġcovered": 2332,
      "ĠUnto": 2333,
      "Ġiron": 2334,
      "Ġobey": 2335,
      "Ġhide": 2336,
      "earer": 2337,
      "ited": 2338,
      "Ġled": 2339,
      "ĠGent": 2340,
      "Ġbringeth": 2341,
      "Ġexp": 2342,
      "Ġguilty": 2343,
      "Ġfallen": 2344,
      "ĠKnower": 2345,
      "rise": 2346,
      "wor": 2347,
      "yond": 2348,
      "zzar": 2349,
      "Ġwood": 2350,
      "Ġhell": 2351,
      "uted": 2352,
      "ĠMoreover": 2353,
      "ĠBy": 2354,
      "Ġprosp": 2355,
      "Ġsmall": 2356,
      "uchad": 2357,
      "air": 2358,
      "nant": 2359,
      "vest": 2360,
      "Ġve": 2361,
      "Ġwo": 2362,
      "orah": 2363,
      "ingly": 2364,
      "Ġpay": 2365,
      "Ġbeyond": 2366,
      "Ġgrow": 2367,
      "ĠMic": 2368,
      "Ġgosp": 2369,
      "Ġmyself": 2370,
      "rupt": 2371,
      "ĠPsalm": 2372,
      "Ġworshi": 2373,
      "Ġprost": 2374,
      "ĠCha": 2375,
      "Ġloved": 2376,
      "urely": 2377,
      "ĠEgyptians": 2378,
      "Ġflow": 2379,
      "Ġimage": 2380,
      "Ġsecret": 2381,
      "Ġorder": 2382,
      "ĠGentiles": 2383,
      "Ġgospel": 2384,
      "Ġaton": 2385,
      "Ġsho": 2386,
      "Ġsitt": 2387,
      "Ġhate": 2388,
      "Ġbas": 2389,
      "Ġhair": 2390,
      "Ġaside": 2391,
      "Ġweep": 2392,
      "Ġremnant": 2393,
      "Ġendure": 2394,
      "Ġparts": 2395,
      "Ġcarry": 2396,
      "ĠNebuchad": 2397,
      "ĠChald": 2398,
      "Ġatonement": 2399,
      "rees": 2400,
      "ĠHave": 2401,
      "ĠBar": 2402,
      "Ġshepher": 2403,
      "Ġsmoke": 2404,
      "ully": 2405,
      "sured": 2406,
      "ĠEsau": 2407,
      "Ġestablish": 2408,
      "Ġutterly": 2409,
      "Ġviney": 2410,
      "Ġordinances": 2411,
      "Ġforbid": 2412,
      "We": 2413,
      "Ġaught": 2414,
      "Ġsore": 2415,
      "Ġcam": 2416,
      "ention": 2417,
      "Ġreg": 2418,
      "ĠJoh": 2419,
      "ĠGad": 2420,
      "hob": 2421,
      "Ġalive": 2422,
      "Ġriches": 2423,
      "Ġeaten": 2424,
      "ength": 2425,
      "Ġbreadth": 2426,
      "Where": 2427,
      "Ġpurp": 2428,
      "Ġgeneration": 2429,
      "Ġdraw": 2430,
      "Ġcommitted": 2431,
      "Ġshekels": 2432,
      "Ġfulfilled": 2433,
      "Ġsuffer": 2434,
      "ĠJohn": 2435,
      "lam": 2436,
      "ram": 2437,
      "Ġhome": 2438,
      "Ġcal": 2439,
      "hah": 2440,
      "Ġlength": 2441,
      "Ġget": 2442,
      "Ġsain": 2443,
      "ode": 2444,
      "ries": 2445,
      "ĠSuch": 2446,
      "Ġgoing": 2447,
      "ĠTheir": 2448,
      "Ġsoj": 2449,
      "aken": 2450,
      "Thou": 2451,
      "Ġhorns": 2452,
      "Ġlabour": 2453,
      "bit": 2454,
      "zz": 2455,
      "Ġcease": 2456,
      "ĠTake": 2457,
      "ĠEven": 2458,
      "ĠNe": 2459,
      "aves": 2460,
      "imelech": 2461,
      "uben": 2462,
      "Ġperfect": 2463,
      "Ġplant": 2464,
      "Ġquick": 2465,
      "ĠReuben": 2466,
      "Ġarmy": 2467,
      "Ġpunishment": 2468,
      "Ġtestimony": 2469,
      "Ġbeginning": 2470,
      "Ġmanifest": 2471,
      "hor": 2472,
      "Ġsn": 2473,
      "chem": 2474,
      "ason": 2475,
      "Ġvis": 2476,
      "Ġhousehold": 2477,
      "Ġlift": 2478,
      "This": 2479,
      "Ġmultip": 2480,
      "Ġclothes": 2481,
      "iath": 2482,
      "nce": 2483,
      "Ġthink": 2484,
      "Ġpoured": 2485,
      "Ġwhe": 2486,
      "Ġcomfort": 2487,
      "Ġabode": 2488,
      "Ġran": 2489,
      "ĠJehosha": 2490,
      "Ġcontinually": 2491,
      "ĠJehoshaphat": 2492,
      "ience": 2493,
      "erily": 2494,
      "Ġfree": 2495,
      "Ġcircumc": 2496,
      "ĠAhi": 2497,
      "Ġpat": 2498,
      "Ġtop": 2499,
      "Ġlow": 2500,
      "Ġtable": 2501,
      "let": 2502,
      "cend": 2503,
      "ĠEn": 2504,
      "ĠElea": 2505,
      "ckon": 2506,
      "Ġvision": 2507,
      "Ġsold": 2508,
      "iced": 2509,
      "ĠZeb": 2510,
      "ĠUs": 2511,
      "Ġtrouble": 2512,
      "Ġdoub": 2513,
      "Ġsaints": 2514,
      "go": 2515,
      "Ġthither": 2516,
      "Ġcre": 2517,
      "aying": 2518,
      "Ġfort": 2519,
      "ĠGhost": 2520,
      "Ġeye": 2521,
      "lessed": 2522,
      "Ġdenied": 2523,
      "Ġpitched": 2524,
      "Ġjourneyed": 2525,
      "Ġapost": 2526,
      "ĠDaniel": 2527,
      "ran": 2528,
      "Ġed": 2529,
      "thy": 2530,
      "Ġwear": 2531,
      "Ġhour": 2532,
      "reesc": 2533,
      "Ġbar": 2534,
      "Ġmur": 2535,
      "ĠMa": 2536,
      "ĠMid": 2537,
      "run": 2538,
      "Ġknowest": 2539,
      "Ġdeep": 2540,
      "Ġbran": 2541,
      "Ġoffic": 2542,
      "Ġrememb": 2543,
      "Ġwaste": 2544,
      "Ġescape": 2545,
      "Ġcrown": 2546,
      "Ġcorrupt": 2547,
      "Ġinterp": 2548,
      "reescore": 2549,
      "It": 2550,
      "ible": 2551,
      "place": 2552,
      "ues": 2553,
      "Ġthreescore": 2554,
      "ĠAhaz": 2555,
      "ĠAware": 2556,
      "Ġlot": 2557,
      "Ġseem": 2558,
      "Ġweight": 2559,
      "ĠDo": 2560,
      "Ġdevour": 2561,
      "igion": 2562,
      "ĠAsher": 2563,
      "Ġfourth": 2564,
      "Ġdeeds": 2565,
      "ĠMidian": 2566,
      "eah": 2567,
      "Ġhabit": 2568,
      "Ġthereon": 2569,
      "Ġswear": 2570,
      "Ġgracious": 2571,
      "ĠShem": 2572,
      "Ġtenth": 2573,
      "Ġflocks": 2574,
      "Ġhills": 2575,
      "Ġprofan": 2576,
      "ĠHebron": 2577,
      "Ã¦": 2578,
      "Ġcou": 2579,
      "vere": 2580,
      "ĠMighty": 2581,
      "ĠWill": 2582,
      "Ġshout": 2583,
      "osh": 2584,
      "Ġatt": 2585,
      "Ġwrite": 2586,
      "Ġbelieveth": 2587,
      "ized": 2588,
      "Ġreligion": 2589,
      "sue": 2590,
      "theless": 2591,
      "Ġbit": 2592,
      "Ġbest": 2593,
      "Ġmale": 2594,
      "ont": 2595,
      "Ġbeat": 2596,
      "Ġlast": 2597,
      "Ġtaught": 2598,
      "aries": 2599,
      "ĠHan": 2600,
      "riah": 2601,
      "Ġyouth": 2602,
      "ĠWise": 2603,
      "Ġneck": 2604,
      "Ġwherefore": 2605,
      "ĠRam": 2606,
      "ĠJez": 2607,
      "Ġexcept": 2608,
      "Ġjudged": 2609,
      "Ġbowed": 2610,
      "Ġprophesy": 2611,
      "Ġstranger": 2612,
      "Ġviol": 2613,
      "Ġexalted": 2614,
      "Ġvanity": 2615,
      "ual": 2616,
      "Ġoath": 2617,
      "Ġfow": 2618,
      "iss": 2619,
      "Ġced": 2620,
      "Ġdrun": 2621,
      "ari": 2622,
      "ĠHad": 2623,
      "ĠSelah": 2624,
      "Ġtheirs": 2625,
      "Ġvic": 2626,
      "resh": 2627,
      "ĠRes": 2628,
      "Ġris": 2629,
      "Ġpromised": 2630,
      "Ġrams": 2631,
      "Ġstraight": 2632,
      "ĠVerily": 2633,
      "Ġreproach": 2634,
      "ĠChaldeans": 2635,
      "much": 2636,
      "Ġshi": 2637,
      "Ġweak": 2638,
      "Ġhither": 2639,
      "tow": 2640,
      "Ġfought": 2641,
      "Ġdro": 2642,
      "aniah": 2643,
      "ceived": 2644,
      "Ġreason": 2645,
      "ember": 2646,
      "beit": 2647,
      "Ġdestruction": 2648,
      "Ġpleasure": 2649,
      "Ġbelongeth": 2650,
      "Ġconsumed": 2651,
      "eld": 2652,
      "xed": 2653,
      "Ġcru": 2654,
      "ĠLeb": 2655,
      "erer": 2656,
      "inder": 2657,
      "Ġgreatly": 2658,
      "Ġdealt": 2659,
      "ĠZer": 2660,
      "ounded": 2661,
      "Ġscatt": 2662,
      "Ġkindness": 2663,
      "Ġfoolish": 2664,
      "Ġcompassion": 2665,
      "Ġproclaim": 2666,
      "If": 2667,
      "day": 2668,
      "ms": 2669,
      "Ġbird": 2670,
      "ĠAra": 2671,
      "Ġtoo": 2672,
      "Ġwhite": 2673,
      "Ġhap": 2674,
      "owed": 2675,
      "ĠHear": 2676,
      "Ġresp": 2677,
      "Ġbroke": 2678,
      "acher": 2679,
      "ĠKing": 2680,
      "Ġbapt": 2681,
      "ĠAmor": 2682,
      "Ġhard": 2683,
      "Ġforgot": 2684,
      "ĠElijah": 2685,
      "Ġcompany": 2686,
      "Ġfury": 2687,
      "Ġacts": 2688,
      "fast": 2689,
      "tle": 2690,
      "Ġwings": 2691,
      "Ġwond": 2692,
      "Ġmention": 2693,
      "Ġdry": 2694,
      "Ġinqu": 2695,
      "asmuch": 2696,
      "Ġele": 2697,
      "rust": 2698,
      "ĠForgiving": 2699,
      "Ġsmitten": 2700,
      "Ġcaptive": 2701,
      "Ġabundance": 2702,
      "Ġchurch": 2703,
      "ĠEleazar": 2704,
      "Ġremembrance": 2705,
      "Ġinterpret": 2706,
      "Ġshield": 2707,
      "evil": 2708,
      "Ġbount": 2709,
      "Ġreckon": 2710,
      "ĠWith": 2711,
      "ĠPro": 2712,
      "ĠCome": 2713,
      "Ġliken": 2714,
      "Ġexec": 2715,
      "nged": 2716,
      "Ġspeaketh": 2717,
      "Ġgolden": 2718,
      "Ġrule": 2719,
      "Ġforget": 2720,
      "Ġincense": 2721,
      "Ġsacrifices": 2722,
      "Ġskin": 2723,
      "Ġforsaken": 2724,
      "ĠTruth": 2725,
      "ĠIshm": 2726,
      "ĠLeban": 2727,
      "vy": 2728,
      "ider": 2729,
      "ĠMer": 2730,
      "ilk": 2731,
      "Ġseeth": 2732,
      "Ġarise": 2733,
      "aughter": 2734,
      "Ġprecious": 2735,
      "Ġguilt": 2736,
      "Ġflour": 2737,
      "Ġpursu": 2738,
      "Ġterror": 2739,
      "Ġprofit": 2740,
      "Ġbitter": 2741,
      "ĠLebanon": 2742,
      ")?": 2743,
      "cus": 2744,
      "fully": 2745,
      "maid": 2746,
      "nah": 2747,
      "trees": 2748,
      "Ġwea": 2749,
      "Ġhy": 2750,
      "ises": 2751,
      "ĠAt": 2752,
      "Ġpar": 2753,
      "Ġpour": 2754,
      "Ġtow": 2755,
      "ition": 2756,
      "Ġgre": 2757,
      "Ġgift": 2758,
      "Ġheight": 2759,
      "road": 2760,
      "ained": 2761,
      "vened": 2762,
      "hood": 2763,
      "Ġearly": 2764,
      "Ġsum": 2765,
      "Ġpride": 2766,
      "Ġserved": 2767,
      "Ġdeal": 2768,
      "ĠAbimelech": 2769,
      "Ġtrees": 2770,
      "Ġmoon": 2771,
      "ĠShechem": 2772,
      "Ġpainful": 2773,
      "Ġdistress": 2774,
      "Ġprosper": 2775,
      "aim": 2776,
      "ace": 2777,
      "xt": 2778,
      "Ġband": 2779,
      "Ġfeared": 2780,
      "iting": 2781,
      "ĠLot": 2782,
      "Ġupward": 2783,
      "Ġtherewith": 2784,
      "veng": 2785,
      "ĠWoe": 2786,
      "Ġwhence": 2787,
      "aliah": 2788,
      "held": 2789,
      "Ġbestow": 2790,
      "ĠUzz": 2791,
      "spired": 2792,
      "Ġadd": 2793,
      "form": 2794,
      "Ġpleased": 2795,
      "Ġprovision": 2796,
      "Ġresto": 2797,
      "Ġprepare": 2798,
      "Ġfriends": 2799,
      "Ġdrive": 2800,
      "Ġdoubt": 2801,
      "ĠIshmael": 2802,
      "hon": 2803,
      "mble": 2804,
      "na": 2805,
      "ss": 2806,
      "Ġequ": 2807,
      "ĠHaz": 2808,
      "Ġkilled": 2809,
      "ĠSar": 2810,
      "ĠWor": 2811,
      "Ġdost": 2812,
      "Ġvir": 2813,
      "Ġvill": 2814,
      "Ġmayest": 2815,
      "Ġbreath": 2816,
      "aste": 2817,
      "Ġenj": 2818,
      "Ġprey": 2819,
      "Ġdwelling": 2820,
      "Ġmeans": 2821,
      "Ġidolat": 2822,
      "Ġapart": 2823,
      "Ġabominations": 2824,
      "Ġerror": 2825,
      "Ġcherubim": 2826,
      "As": 2827,
      "Come": 2828,
      "cess": 2829,
      "uth": 2830,
      "wh": 2831,
      "Ġill": 2832,
      "Ġhence": 2833,
      "Ġblem": 2834,
      "Ġfain": 2835,
      "Ġfig": 2836,
      "Ġpas": 2837,
      "Ġlust": 2838,
      "seth": 2839,
      "Ġsack": 2840,
      "ĠMary": 2841,
      "ĠSurely": 2842,
      "Ġfail": 2843,
      "sover": 2844,
      "Ġabroad": 2845,
      "Ġsoon": 2846,
      "ĠAsh": 2847,
      "Ġfellow": 2848,
      "ĠLevi": 2849,
      "Ġclothed": 2850,
      "Ġslaves": 2851,
      "Ġbranches": 2852,
      "ĠResurrection": 2853,
      "Ġscattered": 2854,
      "Muhammad": 2855,
      "Ġfill": 2856,
      "ongh": 2857,
      "Ġbef": 2858,
      "irm": 2859,
      "ĠHigh": 2860,
      "vern": 2861,
      "very": 2862,
      "ĠGive": 2863,
      "Ġgovern": 2864,
      "Ġspear": 2865,
      "ali": 2866,
      "Ġwept": 2867,
      "Ġhandmaid": 2868,
      "Ġevening": 2869,
      "ppy": 2870,
      "ĠZed": 2871,
      "Ġraise": 2872,
      "Ġstrongh": 2873,
      "Ġfew": 2874,
      "Ġstanding": 2875,
      "Ġchoose": 2876,
      "ĠRehob": 2877,
      "Ġremembered": 2878,
      "ilee": 2879,
      "Ġinstru": 2880,
      "Ġinstead": 2881,
      "Ġadversaries": 2882,
      "urif": 2883,
      "Ġblemish": 2884,
      "Ġpassover": 2885,
      "Ġstronghold": 2886,
      "My": 2887,
      "mp": 2888,
      "pes": 2889,
      "Ġhat": 2890,
      "inn": 2891,
      "Ġming": 2892,
      "Ġpurif": 2893,
      "verse": 2894,
      "Ġspend": 2895,
      "ief": 2896,
      "roud": 2897,
      "ĠDam": 2898,
      "Ġtaketh": 2899,
      "Ġrejo": 2900,
      "ĠElisha": 2901,
      "ĠArameans": 2902,
      "Ġsuppl": 2903,
      "Ġobserve": 2904,
      "Ġapostles": 2905,
      "Ġofficers": 2906,
      "Take": 2907,
      "Who": 2908,
      "ives": 2909,
      "sing": 2910,
      "Ġob": 2911,
      "inth": 2912,
      "Ġfier": 2913,
      "Ġlad": 2914,
      "Ġlep": 2915,
      "adab": 2916,
      "Ġloins": 2917,
      "Ġaccount": 2918,
      "ĠAbner": 2919,
      "Ġwomb": 2920,
      "Ġburning": 2921,
      "formed": 2922,
      "ready": 2923,
      "Ġkindled": 2924,
      "Ġsanctify": 2925,
      "Ġrebu": 2926,
      "Ġaffliction": 2927,
      "Ġrulers": 2928,
      "Ġchamber": 2929,
      "Ġsojourn": 2930,
      "ĠZedekiah": 2931,
      "ĠDamas": 2932,
      "Is": 2933,
      "Son": 2934,
      "fl": 2935,
      "ting": 2936,
      "int": 2937,
      "Ġbra": 2938,
      "ĠAre": 2939,
      "Ġnat": 2940,
      "Ġlying": 2941,
      "Ġrent": 2942,
      "ĠSin": 2943,
      "Ġdoings": 2944,
      "ĠNever": 2945,
      "Ġjoin": 2946,
      "ĠAbram": 2947,
      "ĠJehu": 2948,
      "Ġappeared": 2949,
      "Ġprevail": 2950,
      "Ġrather": 2951,
      "Ġburned": 2952,
      "Ġprayed": 2953,
      "Ġscar": 2954,
      "Ġmonths": 2955,
      "ileth": 2956,
      "Ġrecord": 2957,
      "Ġguided": 2958,
      "Ġgarment": 2959,
      "Ġlamb": 2960,
      "Ġlament": 2961,
      "ĠHaman": 2962,
      "alaam": 2963,
      "Ġhabitation": 2964,
      "Ġlikeness": 2965,
      "ĠDamascus": 2966,
      "venty": 2967,
      "Ġea": 2968,
      "Ġthrust": 2969,
      "Ġsy": 2970,
      "erv": 2971,
      "tory": 2972,
      "Ġfount": 2973,
      "iseth": 2974,
      "enance": 2975,
      "Ġdomin": 2976,
      "Ġint": 2977,
      "Ġshadow": 2978,
      "Ġem": 2979,
      "ĠMord": 2980,
      "ĠBalaam": 2981,
      "Ġseventy": 2982,
      "Ġalway": 2983,
      "ĠNot": 2984,
      "Ġhealed": 2985,
      "Ġproof": 2986,
      "ously": 2987,
      "Ġhaste": 2988,
      "Ġpersec": 2989,
      "ĠWhoso": 2990,
      "ecai": 2991,
      "Ġmoved": 2992,
      "Ġminist": 2993,
      "Ġgrie": 2994,
      "Ġdeceit": 2995,
      "Ġencamp": 2996,
      "Ġexceeding": 2997,
      "ĠMordecai": 2998,
      "cl": 2999,
      "count": 3000,
      "ĠQ": 3001,
      "Ġought": 3002,
      "Ġfish": 3003,
      "Ġcro": 3004,
      "Ġcup": 3005,
      "Ġpor": 3006,
      "Ġlamp": 3007,
      "Ġtalk": 3008,
      "Ġsavour": 3009,
      "ĠMost": 3010,
      "ĠGal": 3011,
      "ada": 3012,
      "ĠBlessed": 3013,
      "ales": 3014,
      "ckets": 3015,
      "law": 3016,
      "Ġearn": 3017,
      "ĠAsa": 3018,
      "Ġbroad": 3019,
      "Ġthousands": 3020,
      "Ġslaughter": 3021,
      "Ġcauseth": 3022,
      "ĠPharise": 3023,
      "Ġwitnesses": 3024,
      "Ġdivided": 3025,
      "Ġgrass": 3026,
      "Ġneedy": 3027,
      "Ġassembly": 3028,
      "Ġnakedness": 3029,
      "Ġworshipped": 3030,
      "Ġprostrate": 3031,
      "Ġendureth": 3032,
      "Ġviolence": 3033,
      "country": 3034,
      "ijah": 3035,
      "kes": 3036,
      "lest": 3037,
      "pe": 3038,
      "tect": 3039,
      "uce": 3040,
      "Ġfin": 3041,
      "Ġmaid": 3042,
      "atan": 3043,
      "Ġcra": 3044,
      "Ġcand": 3045,
      "ĠAg": 3046,
      "Ġda": 3047,
      "Ġdif": 3048,
      "Ġnether": 3049,
      "ometh": 3050,
      "ĠTy": 3051,
      "ution": 3052,
      "ased": 3053,
      "rib": 3054,
      "Ġthereby": 3055,
      "Ġalready": 3056,
      "nezzar": 3057,
      "ĠKo": 3058,
      "There": 3059,
      "Ġtreacher": 3060,
      "ealous": 3061,
      "Ġfifth": 3062,
      "Ġdoors": 3063,
      "Ġcurtain": 3064,
      "Ġwalls": 3065,
      "Ġnamed": 3066,
      "teenth": 3067,
      "Ġappearance": 3068,
      "Ġhorsemen": 3069,
      "Ġwrote": 3070,
      "Ġtorment": 3071,
      "Ġinterpretation": 3072,
      "aff": 3073,
      "time": 3074,
      "Ġthick": 3075,
      "Ġpala": 3076,
      "Ġtoken": 3077,
      "ĠLead": 3078,
      "Ġte": 3079,
      "ĠHer": 3080,
      "ĠSimon": 3081,
      "ĠGib": 3082,
      "Ġasses": 3083,
      "ander": 3084,
      "Ġanoint": 3085,
      "Ġspeech": 3086,
      "Ġsockets": 3087,
      "Ġlived": 3088,
      "ĠWhom": 3089,
      "ĠJerich": 3090,
      "Ġswall": 3091,
      "Ġlikewise": 3092,
      "Ġthank": 3093,
      "ĠKnow": 3094,
      "Ġspeaking": 3095,
      "ago": 3096,
      "Ġpartners": 3097,
      "tained": 3098,
      "Ġqueen": 3099,
      "Ġstrangers": 3100,
      "Ġruler": 3101,
      "Ġsepar": 3102,
      "Ġregard": 3103,
      "Ġedge": 3104,
      "Ġdominion": 3105,
      "ĠLeader": 3106,
      "ĠJericho": 3107,
      "bers": 3108,
      "dle": 3109,
      "ial": 3110,
      "nal": 3111,
      "pent": 3112,
      "wood": 3113,
      "Ġsim": 3114,
      "Ġsear": 3115,
      "Ġsorrow": 3116,
      "Ġhoney": 3117,
      "Ġben": 3118,
      "Ġfet": 3119,
      "Ġmir": 3120,
      "Ġmet": 3121,
      "Ġmour": 3122,
      "ĠAz": 3123,
      "Ġproud": 3124,
      "ĠLab": 3125,
      "Ġtry": 3126,
      "ĠSatan": 3127,
      "ĠEvery": 3128,
      "ĠChi": 3129,
      "Ġprod": 3130,
      "akim": 3131,
      "nty": 3132,
      "Ġarrow": 3133,
      "icent": 3134,
      "Ġfirm": 3135,
      "Ġmercha": 3136,
      "Ġuncircumc": 3137,
      "Ġcarc": 3138,
      "Ġreject": 3139,
      "ĠEsther": 3140,
      "Ġthoughts": 3141,
      "tors": 3142,
      "Ġforgiveness": 3143,
      "ĠNebuchadnezzar": 3144,
      "Ġpurpose": 3145,
      "Ġvillages": 3146,
      "Ġmingled": 3147,
      "from": 3148,
      "under": 3149,
      "Ġsow": 3150,
      "Ġmad": 3151,
      "Ġdue": 3152,
      "Ġinward": 3153,
      "ides": 3154,
      "Ġformer": 3155,
      "iment": 3156,
      "Ġelse": 3157,
      "ĠMake": 3158,
      "Ġonce": 3159,
      "Ġstaff": 3160,
      "ĠEx": 3161,
      "ĠNa": 3162,
      "ignty": 3163,
      "leavened": 3164,
      "eficent": 3165,
      "Ġeateth": 3166,
      "Ġturneth": 3167,
      "Ġbase": 3168,
      "Ġchast": 3169,
      "ounce": 3170,
      "Ġdevoured": 3171,
      "Ġsigns": 3172,
      "Ġordinance": 3173,
      "Ġdespised": 3174,
      "Ġdriven": 3175,
      "Ġseason": 3176,
      "Ġdefiled": 3177,
      "Ġhaply": 3178,
      "ĠNevertheless": 3179,
      "ĠLaban": 3180,
      "de": 3181,
      "tree": 3182,
      "isf": 3183,
      "Ġpa": 3184,
      "Ġinvent": 3185,
      "Ġlod": 3186,
      "Ġlear": 3187,
      "Ġunleavened": 3188,
      "amar": 3189,
      "Ġitself": 3190,
      "Ġalong": 3191,
      "eps": 3192,
      "Ġswore": 3193,
      "imeon": 3194,
      "Ġraiment": 3195,
      "ĠAmen": 3196,
      "Ġharvest": 3197,
      "Ġquest": 3198,
      "Ġprovin": 3199,
      "Ġsatisf": 3200,
      "Ġguideth": 3201,
      "Ġtransgression": 3202,
      "Ġbondmen": 3203,
      "Ġescaped": 3204,
      "vereignty": 3205,
      "Ġvirg": 3206,
      "He": 3207,
      "dra": 3208,
      "iet": 3209,
      "ike": 3210,
      "Ġhung": 3211,
      "Ġhumble": 3212,
      "Ġbos": 3213,
      "Ġmorrow": 3214,
      "Ġdet": 3215,
      "eareth": 3216,
      "Ġgain": 3217,
      "iding": 3218,
      "Ġep": 3219,
      "ceive": 3220,
      "ĠSt": 3221,
      "ĠSee": 3222,
      "ĠSimeon": 3223,
      "Ġdoing": 3224,
      "oph": 3225,
      "ĠEth": 3226,
      "Ġarray": 3227,
      "ĠKir": 3228,
      "Ġaltars": 3229,
      "Ġfollowing": 3230,
      "ĠBeneficent": 3231,
      "Ġdecree": 3232,
      "Ġchariot": 3233,
      "Ġabomination": 3234,
      "Ġpreached": 3235,
      "ĠNeither": 3236,
      "Ġbosom": 3237,
      "bah": 3238,
      "lah": 3239,
      "och": 3240,
      "saying": 3241,
      "Ġpalm": 3242,
      "Ġbeheld": 3243,
      "Ġhallow": 3244,
      "Ġyoke": 3245,
      "Ġloud": 3246,
      "vell": 3247,
      "Ġtaste": 3248,
      "ldren": 3249,
      "Ġupper": 3250,
      "Ġgoats": 3251,
      "Ġstir": 3252,
      "ĠNaph": 3253,
      "Ġconsec": 3254,
      "ulch": 3255,
      "Ġguide": 3256,
      "Ġdwelleth": 3257,
      "Ġbeseech": 3258,
      "Ġtremb": 3259,
      "Ġscorn": 3260,
      "Ġkingdoms": 3261,
      "Ġiniquities": 3262,
      "Ġtents": 3263,
      "Ġpraises": 3264,
      "ĠJosiah": 3265,
      "Ġsanctified": 3266,
      "Ġmaking": 3267,
      "ĠHowbeit": 3268,
      "Ġforest": 3269,
      "Ġpersons": 3270,
      "Ġsepulch": 3271,
      "ĠJehoiada": 3272,
      "Wherefore": 3273,
      "ĠZebul": 3274,
      "ĠTyre": 3275,
      "ibe": 3276,
      "mor": 3277,
      "rated": 3278,
      "Ġsurre": 3279,
      "Ġmark": 3280,
      "Ġdil": 3281,
      "Ġund": 3282,
      "Ġnet": 3283,
      "Ġgif": 3284,
      "Ġnoise": 3285,
      "lds": 3286,
      "ĠMiz": 3287,
      "Ġseest": 3288,
      "ardon": 3289,
      "Ġafar": 3290,
      "Ġworthy": 3291,
      "Ġsucc": 3292,
      "Ġjealous": 3293,
      "Ġsince": 3294,
      "Ġtrump": 3295,
      "Ġremoved": 3296,
      "Ġcanst": 3297,
      "Ġfoundation": 3298,
      "Ġportents": 3299,
      "Ġsky": 3300,
      "asseth": 3301,
      "Ġabundant": 3302,
      "Ġcondem": 3303,
      "Ġstretched": 3304,
      "ĠAmorites": 3305,
      "ĠRehoboam": 3306,
      "ĠQur": 3307,
      "lestick": 3308,
      "Ġcandlestick": 3309,
      "ĠChildren": 3310,
      "ibeon": 3311,
      "Ġgifts": 3312,
      "How": 3313,
      "lor": 3314,
      "land": 3315,
      "pah": 3316,
      "ued": 3317,
      "reel": 3318,
      "ĠAi": 3319,
      "Ġpest": 3320,
      "eance": 3321,
      "Ġinner": 3322,
      "Ġtear": 3323,
      "Ġtal": 3324,
      "Ġeph": 3325,
      "ĠHar": 3326,
      "ĠBest": 3327,
      "Ġhearing": 3328,
      "ĠNathan": 3329,
      "Ġheareth": 3330,
      "Ġoverc": 3331,
      "Ġblue": 3332,
      "alek": 3333,
      "ĠBeer": 3334,
      "ĠKorah": 3335,
      "Ġdeser": 3336,
      "ĠAmalek": 3337,
      "Ġplu": 3338,
      "Ġgrave": 3339,
      "Then": 3340,
      "Ġruin": 3341,
      "Ġentrance": 3342,
      "Ġdisbelieved": 3343,
      "Ġincl": 3344,
      "Ġpurple": 3345,
      "Ġcourse": 3346,
      "Ġtreasures": 3347,
      "Ġcamels": 3348,
      "ĠJezreel": 3349,
      "Ġcedar": 3350,
      "Ġbounty": 3351,
      "Ġscarlet": 3352,
      "Ġcarcass": 3353,
      "Ġdilig": 3354,
      "Ġephod": 3355,
      "In": 3356,
      "gal": 3357,
      "non": 3358,
      "nago": 3359,
      "Ġign": 3360,
      "Ġban": 3361,
      "Ġclea": 3362,
      "Ġdi": 3363,
      "Ġinspired": 3364,
      "Ġnine": 3365,
      "ange": 3366,
      "adok": 3367,
      "ĠBal": 3368,
      "tery": 3369,
      "empt": 3370,
      "ĠPra": 3371,
      "ĠZadok": 3372,
      "Ġchan": 3373,
      "Ġstrange": 3374,
      "Ġends": 3375,
      "Ġmeasured": 3376,
      "Ġgraven": 3377,
      "Ġlawful": 3378,
      "Ġthirst": 3379,
      "Ġblessing": 3380,
      "Ġwronged": 3381,
      "Ġstrive": 3382,
      "Ġtoucheth": 3383,
      "Ġbeauty": 3384,
      "Ġgriev": 3385,
      "Ġfalsehood": 3386,
      "Ġtroub": 3387,
      "ĠJoash": 3388,
      "Ġstreets": 3389,
      "Ġwroth": 3390,
      "Ġbreasts": 3391,
      "Ġafflicted": 3392,
      "Ġvineyard": 3393,
      "Ġfortified": 3394,
      "Ġvictory": 3395,
      "Ġforgotten": 3396,
      "Ġbefall": 3397,
      "Ġsynago": 3398,
      "ĠNapht": 3399,
      "Ġpestil": 3400,
      "aw": 3401,
      "ging": 3402,
      "neth": 3403,
      "rah": 3404,
      "sto": 3405,
      "Ġveng": 3406,
      "Ġsud": 3407,
      "Ġscribe": 3408,
      "Ġbright": 3409,
      "eneth": 3410,
      "Ġlang": 3411,
      "ideth": 3412,
      "Ġheld": 3413,
      "asph": 3414,
      "odom": 3415,
      "Ġreap": 3416,
      "Ġfro": 3417,
      "Ġmeat": 3418,
      "aunt": 3419,
      "Ġshed": 3420,
      "ĠPer": 3421,
      "Ġheal": 3422,
      "Ġourselves": 3423,
      "Ġblasph": 3424,
      "ĠSovereignty": 3425,
      "Ġbare": 3426,
      "ortal": 3427,
      "Ġcontent": 3428,
      "Ġsendeth": 3429,
      "Ġhelped": 3430,
      "Ġcountries": 3431,
      "Ġtempt": 3432,
      "Ġlambs": 3433,
      "Ġincreased": 3434,
      "Ġforsake": 3435,
      "Ġmagn": 3436,
      "Ġredeemed": 3437,
      "Ġveil": 3438,
      "Ġshepherds": 3439,
      "Ġtower": 3440,
      "ĠKohath": 3441,
      "Ġvengeance": 3442,
      "Ġsudden": 3443,
      "Ġlangu": 3444,
      "Ġblasphem": 3445,
      "cha": 3446,
      "lied": 3447,
      "morrow": 3448,
      "phan": 3449,
      "Ġhated": 3450,
      "Ġfurn": 3451,
      "ouse": 3452,
      "ens": 3453,
      "Ġpot": 3454,
      "Ġpardon": 3455,
      "Ġinn": 3456,
      "Ġnought": 3457,
      "Ġforward": 3458,
      "ĠTim": 3459,
      "aring": 3460,
      "leh": 3461,
      "ĠGed": 3462,
      "Ġcare": 3463,
      "Ġconceived": 3464,
      "Ġprotect": 3465,
      "ĠRach": 3466,
      "Ġwarn": 3467,
      "ĠSaying": 3468,
      "aziah": 3469,
      "Ġlords": 3470,
      "Ġarmour": 3471,
      "Ġskil": 3472,
      "Ġrecom": 3473,
      "Ġfruitful": 3474,
      "Ġtouched": 3475,
      "Ġremained": 3476,
      "Ġpiece": 3477,
      "Ġperson": 3478,
      "Ġtarried": 3479,
      "ĠRemember": 3480,
      "ĠPharisees": 3481,
      "Ġsearch": 3482,
      "ĠNaphtali": 3483,
      "Ġpestilence": 3484,
      "ĠRachel": 3485,
      "!'": 3486,
      "',": 3487,
      "rings": 3488,
      "son": 3489,
      "she": 3490,
      "ug": 3491,
      "yr": 3492,
      "Ġfem": 3493,
      "ĠAch": 3494,
      "ĠHitt": 3495,
      "ĠJab": 3496,
      "ĠSal": 3497,
      "Ġmemor": 3498,
      "Ġsong": 3499,
      "sol": 3500,
      "Ġvow": 3501,
      "Ġheavy": 3502,
      "ĠAble": 3503,
      "Ġshouldest": 3504,
      "ĠJeph": 3505,
      "Ġbuy": 3506,
      "Ġdesired": 3507,
      "Ġchanged": 3508,
      "ĠShime": 3509,
      "Ġtread": 3510,
      "overed": 3511,
      "Ġplease": 3512,
      "Ġconsider": 3513,
      "Ġconfid": 3514,
      "Ġtransgressions": 3515,
      "ĠAdam": 3516,
      "Ġbullocks": 3517,
      "Ġvalour": 3518,
      "Ġsuffered": 3519,
      "Ġrebellious": 3520,
      "Ġrespect": 3521,
      "Ġbaptized": 3522,
      "Ġidolaters": 3523,
      "ĠZebulun": 3524,
      "Ġgrievous": 3525,
      "Ġease": 3526,
      "that": 3527,
      "ery": 3528,
      "ately": 3529,
      "ĠAzar": 3530,
      "Ġpost": 3531,
      "hariah": 3532,
      "Ġwidow": 3533,
      "Ġtaunt": 3534,
      "asa": 3535,
      "ashan": 3536,
      "Ġeter": 3537,
      "ĠHath": 3538,
      "iling": 3539,
      "ĠGers": 3540,
      "ĠGlor": 3541,
      "usion": 3542,
      "Ġstars": 3543,
      "Ġstaves": 3544,
      "ideon": 3545,
      "ĠRiver": 3546,
      "Ġrings": 3547,
      "ĠHimself": 3548,
      "Ġbrook": 3549,
      "Ġroll": 3550,
      "ĠKe": 3551,
      "Ġkeepeth": 3552,
      "ĠShil": 3553,
      "Ġharm": 3554,
      "Ġslept": 3555,
      "Ġportent": 3556,
      "Ġbuilded": 3557,
      "Ġherein": 3558,
      "Ġterm": 3559,
      "Ġterri": 3560,
      "Ġpillar": 3561,
      "Ġprophesied": 3562,
      "Ġdiscern": 3563,
      "Ġships": 3564,
      "Ġreached": 3565,
      "Ġrebelled": 3566,
      "Ġtowns": 3567,
      "Ġstretch": 3568,
      "Ġpatience": 3569,
      "Ġrejected": 3570,
      "Hear": 3571,
      "bes": 3572,
      "bus": 3573,
      "hes": 3574,
      "hort": 3575,
      "sac": 3576,
      "Ġwound": 3577,
      "Ġhol": 3578,
      "Ġfing": 3579,
      "Ġche": 3580,
      "Ġdam": 3581,
      "Ġdash": 3582,
      "Ġlau": 3583,
      "idon": 3584,
      "ĠHast": 3585,
      "Ġreed": 3586,
      "ĠSodom": 3587,
      "ĠGideon": 3588,
      "Ġascend": 3589,
      "ĠBashan": 3590,
      "Ġcomfor": 3591,
      "Ġvo": 3592,
      "Ġoverth": 3593,
      "Ġwhereon": 3594,
      "Ġdism": 3595,
      "Ġprice": 3596,
      "Ġappro": 3597,
      "Ġappoint": 3598,
      "Ġflood": 3599,
      "ĠYour": 3600,
      "Ġfours": 3601,
      "Ġbacks": 3602,
      "Ġseeketh": 3603,
      "Ġimages": 3604,
      "ĠArt": 3605,
      "Ġchiefs": 3606,
      "Ġchose": 3607,
      "Ġcountenance": 3608,
      "Ġhidden": 3609,
      "Ġgladness": 3610,
      "Ġdeclared": 3611,
      "Ġtownship": 3612,
      "Ġtarry": 3613,
      "ĠGardens": 3614,
      "Ġweeping": 3615,
      "Ġbirds": 3616,
      "cloth": 3617,
      "ĠPraise": 3618,
      "Ġsuddenly": 3619,
      "sheba": 3620,
      "ĠShimei": 3621,
      "ĠAzariah": 3622,
      "iour": 3623,
      "live": 3624,
      "ris": 3625,
      "sant": 3626,
      "yal": 3627,
      "Ġthresh": 3628,
      "Ġwant": 3629,
      "Ġbath": 3630,
      "has": 3631,
      "Ġlions": 3632,
      "ĠLam": 3633,
      "iram": 3634,
      "ety": 3635,
      "ĠSea": 3636,
      "ĠSave": 3637,
      "ĠGibeon": 3638,
      "Ġgot": 3639,
      "ĠIssac": 3640,
      "Ġstumb": 3641,
      "Ġspring": 3642,
      "ĠFear": 3643,
      "ĠFrom": 3644,
      "rud": 3645,
      "oked": 3646,
      "ĠNab": 3647,
      "Ġlost": 3648,
      "Ġnext": 3649,
      "Ġlies": 3650,
      "Ġserpent": 3651,
      "Ġhasten": 3652,
      "Ġplaced": 3653,
      "ĠRab": 3654,
      "Ġaccom": 3655,
      "ĠJebus": 3656,
      "ĠJesse": 3657,
      "ĠWhosoever": 3658,
      "Ġsealed": 3659,
      "Ġglorified": 3660,
      "Ġwarner": 3661,
      "Ġboast": 3662,
      "Ġpoll": 3663,
      "Ġsixth": 3664,
      "Ġborders": 3665,
      "Ġshekel": 3666,
      "Ġaccepted": 3667,
      "Ġassembled": 3668,
      "Ġmagic": 3669,
      "Ġsnare": 3670,
      "Ġwonders": 3671,
      "Ġsackcloth": 3672,
      "Ġempt": 3673,
      "ĠGalilee": 3674,
      "ĠBalak": 3675,
      "Ġchange": 3676,
      "ĠIssachar": 3677,
      "bl": 3678,
      "bon": 3679,
      "iant": 3680,
      "oz": 3681,
      "Ġsur": 3682,
      "Ġscripture": 3683,
      "Ġolive": 3684,
      "rest": 3685,
      "Ġofferings": 3686,
      "erved": 3687,
      "Ġfil": 3688,
      "Ġfash": 3689,
      "Ġmed": 3690,
      "Ġforasmuch": 3691,
      "Ġsaf": 3692,
      "ĠHearer": 3693,
      "cell": 3694,
      "ĠSi": 3695,
      "ioned": 3696,
      "Ġascribe": 3697,
      "esty": 3698,
      "ĠNeth": 3699,
      "Ġlieth": 3700,
      "Ġblow": 3701,
      "ĠZi": 3702,
      "Ġexhort": 3703,
      "Ġremove": 3704,
      "Ġwriting": 3705,
      "Ġconcub": 3706,
      "Ġtruthful": 3707,
      "Ġcubit": 3708,
      "Ġbuilding": 3709,
      "Ġuncleanness": 3710,
      "ĠSpeak": 3711,
      "Ġeastward": 3712,
      "Ġstrait": 3713,
      "venture": 3714,
      "Ġwashed": 3715,
      "Ġdevils": 3716,
      "Ġchambers": 3717,
      "Ġmultiplied": 3718,
      "Ġcreation": 3719,
      "Ġinquire": 3720,
      "Ġpursued": 3721,
      "Ġfierce": 3722,
      "Ġfountain": 3723,
      "Ġalways": 3724,
      "ĠKiriath": 3725,
      "lehem": 3726,
      "Ġeternal": 3727,
      "Ye": 3728,
      "cy": 3729,
      "will": 3730,
      "Ġthorn": 3731,
      "Ġwave": 3732,
      "Ġbind": 3733,
      "oureth": 3734,
      "Ġuse": 3735,
      "Ġpasseth": 3736,
      "Ġissue": 3737,
      "race": 3738,
      "ently": 3739,
      "Ġann": 3740,
      "Ġshown": 3741,
      "Ġstumble": 3742,
      "ĠDid": 3743,
      "laid": 3744,
      "Ġlands": 3745,
      "Ġletter": 3746,
      "Ġcommun": 3747,
      "aleb": 3748,
      "ĠRed": 3749,
      "ĠAsaph": 3750,
      "Ġclay": 3751,
      "Ġangry": 3752,
      "ended": 3753,
      "Ġharden": 3754,
      "Ġjudgments": 3755,
      "Ġfields": 3756,
      "ĠBenaiah": 3757,
      "Ġpleasant": 3758,
      "Ġstatute": 3759,
      "Ġtravail": 3760,
      "Ġtreasure": 3761,
      "Ġsitting": 3762,
      "Ġshepherd": 3763,
      "Ġbands": 3764,
      "ĠWorlds": 3765,
      "Ġfaint": 3766,
      "Ġencamped": 3767,
      "Ġfinished": 3768,
      "Ġsimil": 3769,
      "gr": 3770,
      "kin": 3771,
      "kah": 3772,
      "serv": 3773,
      "ured": 3774,
      "Ġthigh": 3775,
      "Ġcea": 3776,
      "Ġdig": 3777,
      "Ġhang": 3778,
      "Ġyield": 3779,
      "stance": 3780,
      "Ġeigh": 3781,
      "ament": 3782,
      "ribe": 3783,
      "ĠGath": 3784,
      "cted": 3785,
      "Ġsinners": 3786,
      "Ġbelieving": 3787,
      "ĠJew": 3788,
      "Ġexc": 3789,
      "Ġexcell": 3790,
      "Ġperform": 3791,
      "ĠAmaziah": 3792,
      "Ġplot": 3793,
      "Ġjudges": 3794,
      "Ġwax": 3795,
      "ronic": 3796,
      "Ġfruits": 3797,
      "hanan": 3798,
      "Ġgrant": 3799,
      "ĠGilgal": 3800,
      "ĠHamath": 3801,
      "Ġsubstance": 3802,
      "Ġvineyards": 3803,
      "Ġvisit": 3804,
      "Ġcircumcised": 3805,
      "Ġweary": 3806,
      "Ġmurd": 3807,
      "Ġmurm": 3808,
      "Ġfowl": 3809,
      "Ġeleven": 3810,
      "ĠMerari": 3811,
      "Ġbestowed": 3812,
      "Ġsupplication": 3813,
      "Ġuncircumcised": 3814,
      "Ġparen": 3815,
      "Ġdetest": 3816,
      "Ġephah": 3817,
      "Ġsepulchre": 3818,
      "Ġtalents": 3819,
      "Ġmemorial": 3820,
      "Ġeighth": 3821,
      "Bec": 3822,
      "bar": 3823,
      "core": 3824,
      "head": 3825,
      "pit": 3826,
      "uff": 3827,
      "Ġbought": 3828,
      "Ġmilk": 3829,
      "ĠAha": 3830,
      "Ġdish": 3831,
      "ĠIth": 3832,
      "Ġgro": 3833,
      "Ġgaz": 3834,
      "Ġtried": 3835,
      "ilate": 3836,
      "ĠSouth": 3837,
      "Ġwilled": 3838,
      "adventure": 3839,
      "ĠBel": 3840,
      "Ġsteps": 3841,
      "Ġsprink": 3842,
      "Ġdoct": 3843,
      "lten": 3844,
      "Ġherself": 3845,
      "ĠPeace": 3846,
      "Ġknowing": 3847,
      "Ġheap": 3848,
      "ĠCarm": 3849,
      "Ġlives": 3850,
      "Ġpron": 3851,
      "Ġoverlaid": 3852,
      "Ġbreach": 3853,
      "Ġgoodly": 3854,
      "Ġsworn": 3855,
      "Ġmoreover": 3856,
      "Ġglorious": 3857,
      "Ġentreat": 3858,
      "Ġboards": 3859,
      "forth": 3860,
      "Ġquiet": 3861,
      "Why": 3862,
      "Ġordained": 3863,
      "Ġmolten": 3864,
      "Ġjustified": 3865,
      "Ġresurrection": 3866,
      "doing": 3867,
      "Ġcharged": 3868,
      "Ġtongues": 3869,
      "Ġchronic": 3870,
      "Ġcontinual": 3871,
      "Ġdesolation": 3872,
      "ĠAlso": 3873,
      "Ġdouble": 3874,
      "Ġcovering": 3875,
      "Ġpaths": 3876,
      "Ġshewed": 3877,
      "world": 3878,
      "Ġsitteth": 3879,
      "Ġforbidden": 3880,
      "Ġmultiply": 3881,
      "Ġbeaten": 3882,
      "Ġdrunken": 3883,
      "ĠProph": 3884,
      "ĠSarah": 3885,
      "Ġnature": 3886,
      "Ġjoined": 3887,
      "Ġmourning": 3888,
      "Ġarrows": 3889,
      "Ġinnoc": 3890,
      "Because": 3891,
      "Ġdoctr": 3892,
      "Ġchronicles": 3893,
      "ahaz": 3894,
      "lay": 3895,
      "poc": 3896,
      "ration": 3897,
      "rown": 3898,
      "tribe": 3899,
      "Ġwander": 3900,
      "Ġbot": 3901,
      "Ġmourn": 3902,
      "Ġcol": 3903,
      "ĠAfter": 3904,
      "Ġhail": 3905,
      "Ġless": 3906,
      "Ġgiving": 3907,
      "ĠHa": 3908,
      "elf": 3909,
      "Ġkid": 3910,
      "ĠMes": 3911,
      "Ġaston": 3912,
      "ĠBring": 3913,
      "Ġgoest": 3914,
      "Ġshort": 3915,
      "Ġstay": 3916,
      "Ġage": 3917,
      "Ġkne": 3918,
      "ĠPilate": 3919,
      "ĠNaz": 3920,
      "Ġovert": 3921,
      "Ġgoodness": 3922,
      "Ġswarm": 3923,
      "acles": 3924,
      "Ġstore": 3925,
      "Ġlack": 3926,
      "ignation": 3927,
      "Ġroom": 3928,
      "Ġroyal": 3929,
      "Ġglorify": 3930,
      "Ġwalketh": 3931,
      "ĠSamson": 3932,
      "Ġcursed": 3933,
      "Ġrevelation": 3934,
      "Ġpitch": 3935,
      "Ġstrife": 3936,
      "Ġtables": 3937,
      "Ġfools": 3938,
      "Ġremaineth": 3939,
      "Ġsteadfast": 3940,
      "Ġseasons": 3941,
      "Ġadversary": 3942,
      "Ġchurches": 3943,
      "Ġsuffice": 3944,
      "ĠJehoiakim": 3945,
      "Ġmisch": 3946,
      "Ġwheat": 3947,
      "ĠAhaziah": 3948,
      "Ġprofaned": 3949,
      "Ġhypoc": 3950,
      "Ġequal": 3951,
      "Ġrebuke": 3952,
      "ĠSinai": 3953,
      "Ġdaily": 3954,
      "Ġdiff": 3955,
      "ĠGibeah": 3956,
      "ĠMizpah": 3957,
      "Ġignor": 3958,
      "Ġskilful": 3959,
      "Ġrecompen": 3960,
      "All": 3961,
      "hear": 3962,
      "just": 3963,
      "jesty": 3964,
      "Ġaright": 3965,
      "Ġhire": 3966,
      "Ġbid": 3967,
      "Ġbars": 3968,
      "tous": 3969,
      "oura": 3970,
      "Ġcy": 3971,
      "Ġinf": 3972,
      "Ġline": 3973,
      "Ġforn": 3974,
      "Ġsand": 3975,
      "ĠHor": 3976,
      "rosy": 3977,
      "Ġsell": 3978,
      "Ġcave": 3979,
      "ĠPers": 3980,
      "Ġconv": 3981,
      "ĠCÃ¦": 3982,
      "ĠCaleb": 3983,
      "Ġbride": 3984,
      "Ġawful": 3985,
      "Ġcommon": 3986,
      "Ġswift": 3987,
      "Ġcalleth": 3988,
      "ĠZec": 3989,
      "Ġtruly": 3990,
      "Ġroot": 3991,
      "ĠKen": 3992,
      "Ġwouldest": 3993,
      "Ġflame": 3994,
      "Ġdwellings": 3995,
      "arel": 3996,
      "Ġadv": 3997,
      "ĠArise": 3998,
      "Ġsacrificed": 3999,
      "righteous": 4000,
      "Ġindignation": 4001,
      "Ġconfirm": 4002,
      "Ġdivide": 4003,
      "Ġshowed": 4004,
      "Ġuttermost": 4005,
      "Ġbury": 4006,
      "ĠAdon": 4007,
      "Ġborne": 4008,
      "Ġrefuse": 4009,
      "Ġclouds": 4010,
      "Ġdefile": 4011,
      "suredly": 4012,
      "Ġcalf": 4013,
      "Ġplanted": 4014,
      "Ġdrunk": 4015,
      "Ġrisen": 4016,
      "Ġcruc": 4017,
      "Ġrestore": 4018,
      "Ġenjoin": 4019,
      "Ġleprosy": 4020,
      "Ġporch": 4021,
      "Ġtreacherously": 4022,
      "Ġhallowed": 4023,
      "Ġsuccess": 4024,
      "Ġtears": 4025,
      "Ġdismayed": 4026,
      "Ġaccompl": 4027,
      "Ġparents": 4028,
      "ĠCÃ¦s": 4029,
      "ĠZechariah": 4030,
      "iop": 4031,
      "oor": 4032,
      "pass": 4033,
      "ndered": 4034,
      "Ġoften": 4035,
      "tom": 4036,
      "eness": 4037,
      "Ġmock": 4038,
      "Ġmales": 4039,
      "Ġdieth": 4040,
      "idue": 4041,
      "Ġunrighteous": 4042,
      "Ġforso": 4043,
      "Ġtro": 4044,
      "Ġheat": 4045,
      "ĠHour": 4046,
      "Ġwithdra": 4047,
      "rieth": 4048,
      "ords": 4049,
      "Ġwholly": 4050,
      "Ġspices": 4051,
      "ĠEz": 4052,
      "Ġcase": 4053,
      "Ġabhor": 4054,
      "oks": 4055,
      "Ġdeem": 4056,
      "Ġliber": 4057,
      "ĠThough": 4058,
      "Ġoffice": 4059,
      "ĠZidon": 4060,
      "Ġworketh": 4061,
      "Ġsilence": 4062,
      "Ġkindred": 4063,
      "Ġcounted": 4064,
      "Ġprovoke": 4065,
      "Ġconfess": 4066,
      "Ġtestify": 4067,
      "Ġresidue": 4068,
      "Ġbeaut": 4069,
      "Ġsubd": 4070,
      "Ġcrush": 4071,
      "Ġstream": 4072,
      "Ġoppressed": 4073,
      "Ġgardens": 4074,
      "Ġwonder": 4075,
      "lambs": 4076,
      "ĠRamah": 4077,
      "Ġfowls": 4078,
      "Ġrejoiced": 4079,
      "Ġcraf": 4080,
      "ĠEthiop": 4081,
      "Ġcleave": 4082,
      "Ġfemale": 4083,
      "ĠHittite": 4084,
      "Ġlaugh": 4085,
      "Ġcomforted": 4086,
      "Ġthreshing": 4087,
      "Ġdoctrine": 4088,
      "Ġmischief": 4089,
      "ject": 4090,
      "press": 4091,
      "Ġhumb": 4092,
      "ineth": 4093,
      "reed": 4094,
      "Ġbla": 4095
    },
    "merges": [
      [
        "t",
        "h"
      ],
      [
        "Ġ",
        "th"
      ],
      [
        "Ġth",
        "e"
      ],
      [
        "Ġ",
        "a"
      ],
      [
        "n",
        "d"
      ],
      [
        "Ġ",
        "s"
      ],
      [
        "Ġ",
        "o"
      ],
      [
        "Ġ",
        "w"
      ],
      [
        "Ġ",
        "h"
      ],
      [
        "i",
        "n"
      ],
      [
        "r",
        "e"
      ],
      [
        "Ġa",
        "nd"
      ],
      [
        "Ġo",
        "f"
      ],
      [
        "e",
        "r"
      ],
      [
        "Ġ",
        "b"
      ],
      [
        "t",
        "o"
      ],
      [
        "Ġ",
        "f"
      ],
      [
        "o",
        "u"
      ],
      [
        "l",
        "l"
      ],
      [
        "i",
        "s"
      ],
      [
        "e",
        "n"
      ],
      [
        "Ġ",
        "m"
      ],
      [
        "o",
        "r"
      ],
      [
        "a",
        "t"
      ],
      [
        "Ġ",
        "c"
      ],
      [
        "e",
        "s"
      ],
      [
        "o",
        "n"
      ],
      [
        "Ġ",
        "A"
      ],
      [
        "e",
        "d"
      ],
      [
        "Ġ",
        "d"
      ],
      [
        "Ġ",
        "u"
      ],
      [
        "in",
        "g"
      ],
      [
        "Ġ",
        "p"
      ],
      [
        "e",
        "a"
      ],
      [
        "Ġ",
        "in"
      ],
      [
        "Ġ",
        "to"
      ],
      [
        "Ġ",
        "n"
      ],
      [
        "i",
        "t"
      ],
      [
        "Ġb",
        "e"
      ],
      [
        "Ġw",
        "h"
      ],
      [
        "h",
        "a"
      ],
      [
        "Ġw",
        "i"
      ],
      [
        "Ġth",
        "at"
      ],
      [
        "Ġh",
        "a"
      ],
      [
        "o",
        "m"
      ],
      [
        "ĠA",
        "nd"
      ],
      [
        "a",
        "n"
      ],
      [
        "Ġ",
        "y"
      ],
      [
        "Ġ",
        "I"
      ],
      [
        "Ġ",
        "l"
      ],
      [
        "v",
        "e"
      ],
      [
        "Ġ",
        "g"
      ],
      [
        "s",
        "e"
      ],
      [
        "a",
        "y"
      ],
      [
        "i",
        "d"
      ],
      [
        "Ġu",
        "n"
      ],
      [
        "Ġf",
        "or"
      ],
      [
        "Ġ",
        "L"
      ],
      [
        "s",
        "t"
      ],
      [
        "i",
        "m"
      ],
      [
        "Ġn",
        "o"
      ],
      [
        "Ġ",
        "T"
      ],
      [
        "Ġ",
        "t"
      ],
      [
        "Ġs",
        "ha"
      ],
      [
        "Ġun",
        "to"
      ],
      [
        "Ġh",
        "e"
      ],
      [
        "Ġ",
        "is"
      ],
      [
        "u",
        "t"
      ],
      [
        "ĠT",
        "h"
      ],
      [
        "l",
        "d"
      ],
      [
        "g",
        "h"
      ],
      [
        "Ġthe",
        "y"
      ],
      [
        "a",
        "r"
      ],
      [
        "Ġs",
        "a"
      ],
      [
        "Ġsha",
        "ll"
      ],
      [
        "Ġthe",
        "m"
      ],
      [
        "c",
        "h"
      ],
      [
        "a",
        "s"
      ],
      [
        "i",
        "r"
      ],
      [
        "o",
        "w"
      ],
      [
        "l",
        "e"
      ],
      [
        "Ġ",
        "e"
      ],
      [
        "Ġ",
        "H"
      ],
      [
        "Ġno",
        "t"
      ],
      [
        "e",
        "re"
      ],
      [
        "a",
        "m"
      ],
      [
        "Ġ",
        "it"
      ],
      [
        "o",
        "d"
      ],
      [
        "e",
        "l"
      ],
      [
        "Ġwi",
        "th"
      ],
      [
        "ea",
        "r"
      ],
      [
        "c",
        "e"
      ],
      [
        "v",
        "er"
      ],
      [
        "Ġh",
        "is"
      ],
      [
        "gh",
        "t"
      ],
      [
        "Ġh",
        "im"
      ],
      [
        "a",
        "h"
      ],
      [
        "Ġ",
        "k"
      ],
      [
        "r",
        "i"
      ],
      [
        "r",
        "a"
      ],
      [
        "en",
        "t"
      ],
      [
        "Ġy",
        "ou"
      ],
      [
        "R",
        "D"
      ],
      [
        "O",
        "RD"
      ],
      [
        "ĠL",
        "ORD"
      ],
      [
        "Ġ",
        "re"
      ],
      [
        "Ġ",
        "J"
      ],
      [
        "e",
        "th"
      ],
      [
        "e",
        "t"
      ],
      [
        "Ġ",
        "M"
      ],
      [
        "i",
        "l"
      ],
      [
        "Ġa",
        "ll"
      ],
      [
        "or",
        "d"
      ],
      [
        "u",
        "r"
      ],
      [
        "Ġ",
        "S"
      ],
      [
        "Ġ",
        "G"
      ],
      [
        "Ġu",
        "p"
      ],
      [
        "Ġwi",
        "ll"
      ],
      [
        "i",
        "on"
      ],
      [
        "th",
        "er"
      ],
      [
        "Ġo",
        "n"
      ],
      [
        "Ġth",
        "ou"
      ],
      [
        "o",
        "re"
      ],
      [
        "Ġthe",
        "re"
      ],
      [
        "Ġy",
        "e"
      ],
      [
        "Ġw",
        "as"
      ],
      [
        "Ġa",
        "s"
      ],
      [
        "Ġf",
        "r"
      ],
      [
        "Ġthe",
        "ir"
      ],
      [
        "r",
        "o"
      ],
      [
        "a",
        "nd"
      ],
      [
        "k",
        "e"
      ],
      [
        "Ġha",
        "ve"
      ],
      [
        "Ġsa",
        "id"
      ],
      [
        "Ġwh",
        "i"
      ],
      [
        "a",
        "in"
      ],
      [
        "v",
        "en"
      ],
      [
        "Ġfr",
        "om"
      ],
      [
        "a",
        "d"
      ],
      [
        "es",
        "t"
      ],
      [
        "Ġ",
        "B"
      ],
      [
        "Ġa",
        "re"
      ],
      [
        "Ġa",
        "n"
      ],
      [
        "Ġm",
        "e"
      ],
      [
        "Ġc",
        "om"
      ],
      [
        "es",
        "s"
      ],
      [
        "Ġwhi",
        "ch"
      ],
      [
        "Ġ",
        "W"
      ],
      [
        "Ġ",
        "'"
      ],
      [
        "i",
        "f"
      ],
      [
        "u",
        "s"
      ],
      [
        "Ġm",
        "an"
      ],
      [
        "Ġf",
        "a"
      ],
      [
        "Ġth",
        "y"
      ],
      [
        "ĠG",
        "od"
      ],
      [
        "h",
        "i"
      ],
      [
        "Ġs",
        "e"
      ],
      [
        "ĠH",
        "e"
      ],
      [
        "Ġwh",
        "o"
      ],
      [
        "a",
        "u"
      ],
      [
        "Ġthe",
        "e"
      ],
      [
        "Ġg",
        "o"
      ],
      [
        "f",
        "ore"
      ],
      [
        "Ġs",
        "on"
      ],
      [
        "am",
        "e"
      ],
      [
        "Ġm",
        "y"
      ],
      [
        "l",
        "y"
      ],
      [
        "h",
        "o"
      ],
      [
        "ĠI",
        "s"
      ],
      [
        "Ġk",
        "ing"
      ],
      [
        "Ġs",
        "h"
      ],
      [
        "Ġs",
        "t"
      ],
      [
        "t",
        "er"
      ],
      [
        "Ġwh",
        "en"
      ],
      [
        "Ġs",
        "p"
      ],
      [
        "a",
        "l"
      ],
      [
        "Ġb",
        "ut"
      ],
      [
        "Ġw",
        "ere"
      ],
      [
        ".",
        "'"
      ],
      [
        "Ġ",
        "("
      ],
      [
        "ĠA",
        "ll"
      ],
      [
        "i",
        "ve"
      ],
      [
        "i",
        "ght"
      ],
      [
        "Ġup",
        "on"
      ],
      [
        "er",
        "s"
      ],
      [
        "Ġha",
        "th"
      ],
      [
        "Ġd",
        "o"
      ],
      [
        "i",
        "e"
      ],
      [
        "ĠTh",
        "e"
      ],
      [
        "o",
        "p"
      ],
      [
        "Ġd",
        "ay"
      ],
      [
        "ra",
        "el"
      ],
      [
        "ĠIs",
        "rael"
      ],
      [
        "Ġo",
        "ut"
      ],
      [
        "ĠAll",
        "ah"
      ],
      [
        "at",
        "ion"
      ],
      [
        "Ġb",
        "y"
      ],
      [
        "re",
        "n"
      ],
      [
        "Ġ",
        "E"
      ],
      [
        "Ġw",
        "e"
      ],
      [
        "Ġ",
        "O"
      ],
      [
        "l",
        "t"
      ],
      [
        "Ġs",
        "ay"
      ],
      [
        "c",
        "k"
      ],
      [
        "r",
        "ou"
      ],
      [
        "a",
        "ke"
      ],
      [
        "ou",
        "r"
      ],
      [
        "o",
        "f"
      ],
      [
        "Ġyou",
        "r"
      ],
      [
        "p",
        "t"
      ],
      [
        "Ġ",
        "F"
      ],
      [
        "Ġh",
        "ear"
      ],
      [
        "Ġth",
        "is"
      ],
      [
        "on",
        "g"
      ],
      [
        "s",
        "o"
      ],
      [
        "e",
        "op"
      ],
      [
        "i",
        "th"
      ],
      [
        "Ġh",
        "ou"
      ],
      [
        "Ġp",
        "eop"
      ],
      [
        "Ġc",
        "a"
      ],
      [
        "re",
        "d"
      ],
      [
        "Ġc",
        "hi"
      ],
      [
        "ing",
        "s"
      ],
      [
        "Ġa",
        "g"
      ],
      [
        "an",
        "t"
      ],
      [
        "Ġha",
        "d"
      ],
      [
        "Ġ",
        "v"
      ],
      [
        "Ġ",
        "D"
      ],
      [
        "e",
        "m"
      ],
      [
        "se",
        "l"
      ],
      [
        "Ġk",
        "n"
      ],
      [
        "r",
        "u"
      ],
      [
        "ĠL",
        "ord"
      ],
      [
        "Ġag",
        "ain"
      ],
      [
        "Ġon",
        "e"
      ],
      [
        "ur",
        "n"
      ],
      [
        "o",
        "se"
      ],
      [
        "Ġa",
        "m"
      ],
      [
        "Ġc",
        "ame"
      ],
      [
        "a",
        "b"
      ],
      [
        "ar",
        "d"
      ],
      [
        "in",
        "e"
      ],
      [
        "Ġh",
        "er"
      ],
      [
        "Ġpeop",
        "le"
      ],
      [
        "Ġha",
        "nd"
      ],
      [
        "Ġa",
        "l"
      ],
      [
        "o",
        "s"
      ],
      [
        "u",
        "d"
      ],
      [
        "Ġhou",
        "se"
      ],
      [
        "p",
        "h"
      ],
      [
        "l",
        "a"
      ],
      [
        "Ġ",
        "P"
      ],
      [
        "Ġe",
        "ver"
      ],
      [
        "n",
        "ess"
      ],
      [
        "Ġa",
        "b"
      ],
      [
        "Ġbe",
        "fore"
      ],
      [
        "o",
        "t"
      ],
      [
        "Ġu",
        "s"
      ],
      [
        "o",
        "k"
      ],
      [
        "Ġcom",
        "e"
      ],
      [
        "Ġl",
        "and"
      ],
      [
        "Ġ",
        "N"
      ],
      [
        "Ġchi",
        "ld"
      ],
      [
        "ou",
        "ld"
      ],
      [
        "Ġc",
        "on"
      ],
      [
        "Ġin",
        "to"
      ],
      [
        "Ġkn",
        "ow"
      ],
      [
        "on",
        "e"
      ],
      [
        "ĠF",
        "or"
      ],
      [
        "Ġm",
        "en"
      ],
      [
        "ad",
        "e"
      ],
      [
        "Ġa",
        "f"
      ],
      [
        "Ġa",
        "t"
      ],
      [
        "Ġ",
        "ear"
      ],
      [
        "Ġh",
        "ea"
      ],
      [
        "it",
        "y"
      ],
      [
        "Ġw",
        "or"
      ],
      [
        "Ġs",
        "u"
      ],
      [
        "Ġd",
        "e"
      ],
      [
        "Ġs",
        "o"
      ],
      [
        "au",
        "se"
      ],
      [
        "Ġm",
        "ade"
      ],
      [
        "Ġchild",
        "ren"
      ],
      [
        "Ġagain",
        "st"
      ],
      [
        "Ġp",
        "ro"
      ],
      [
        "Ġ",
        "C"
      ],
      [
        "Ġl",
        "o"
      ],
      [
        "i",
        "ll"
      ],
      [
        "c",
        "t"
      ],
      [
        "Ġ",
        "ri"
      ],
      [
        "'",
        "s"
      ],
      [
        "as",
        "s"
      ],
      [
        "Ġo",
        "r"
      ],
      [
        "o",
        "l"
      ],
      [
        "i",
        "nd"
      ],
      [
        "ow",
        "n"
      ],
      [
        "g",
        "e"
      ],
      [
        "re",
        "at"
      ],
      [
        "Ġn",
        "e"
      ],
      [
        "f",
        "er"
      ],
      [
        "ere",
        "d"
      ],
      [
        "Ġl",
        "i"
      ],
      [
        "Ġp",
        "r"
      ],
      [
        "Ġ",
        "j"
      ],
      [
        "Ġbe",
        "c"
      ],
      [
        "ĠB",
        "ut"
      ],
      [
        "Ġsh",
        "e"
      ],
      [
        "Ġfa",
        "ther"
      ],
      [
        "ho",
        "ld"
      ],
      [
        "Ġt",
        "w"
      ],
      [
        "ĠM",
        "y"
      ],
      [
        "Ġ",
        "if"
      ],
      [
        "Ġm",
        "ay"
      ],
      [
        "ou",
        "t"
      ],
      [
        "Ġs",
        "er"
      ],
      [
        "a",
        "k"
      ],
      [
        "a",
        "v"
      ],
      [
        "ĠW",
        "e"
      ],
      [
        "ĠH",
        "is"
      ],
      [
        "u",
        "l"
      ],
      [
        "n",
        "t"
      ],
      [
        "Ġe",
        "ven"
      ],
      [
        "is",
        "h"
      ],
      [
        "Ġal",
        "so"
      ],
      [
        "re",
        "s"
      ],
      [
        "e",
        "ll"
      ],
      [
        "Ġthe",
        "n"
      ],
      [
        "ĠTh",
        "ou"
      ],
      [
        "Ġo",
        "ver"
      ],
      [
        "is",
        "e"
      ],
      [
        "Ġth",
        "ose"
      ],
      [
        "Ġa",
        "r"
      ],
      [
        "a",
        "th"
      ],
      [
        "Ġb",
        "re"
      ],
      [
        "e",
        "p"
      ],
      [
        "Ġh",
        "o"
      ],
      [
        "p",
        "p"
      ],
      [
        "ou",
        "s"
      ],
      [
        "Ġw",
        "ent"
      ],
      [
        "id",
        "e"
      ],
      [
        "Ġaf",
        "ter"
      ],
      [
        "i",
        "es"
      ],
      [
        "ĠTh",
        "en"
      ],
      [
        "Ġd",
        "id"
      ],
      [
        "i",
        "ce"
      ],
      [
        "Ġear",
        "th"
      ],
      [
        "Ġsa",
        "ith"
      ],
      [
        "Ġsay",
        "ing"
      ],
      [
        "i",
        "ah"
      ],
      [
        "Ġever",
        "y"
      ],
      [
        "Ġd",
        "own"
      ],
      [
        "ĠTh",
        "y"
      ],
      [
        "v",
        "ed"
      ],
      [
        "Ġo",
        "ur"
      ],
      [
        "Ġw",
        "ord"
      ],
      [
        "Ġb",
        "r"
      ],
      [
        "Ġsha",
        "lt"
      ],
      [
        "Ġl",
        "et"
      ],
      [
        "Ġbe",
        "l"
      ],
      [
        "is",
        "t"
      ],
      [
        "l",
        "ed"
      ],
      [
        "Ġm",
        "ake"
      ],
      [
        "v",
        "es"
      ],
      [
        "Ġb",
        "l"
      ],
      [
        "Ġth",
        "ings"
      ],
      [
        "av",
        "id"
      ],
      [
        "ĠD",
        "avid"
      ],
      [
        "Ġson",
        "s"
      ],
      [
        "Ġha",
        "st"
      ],
      [
        "Ġa",
        "c"
      ],
      [
        "l",
        "es"
      ],
      [
        "w",
        "ard"
      ],
      [
        "t",
        "ed"
      ],
      [
        "m",
        "ent"
      ],
      [
        "Ġri",
        "ght"
      ],
      [
        "i",
        "g"
      ],
      [
        "Ġa",
        "w"
      ],
      [
        "Ġwh",
        "at"
      ],
      [
        "Ġcom",
        "m"
      ],
      [
        "u",
        "re"
      ],
      [
        "Ġthere",
        "of"
      ],
      [
        "u",
        "m"
      ],
      [
        "c",
        "es"
      ],
      [
        "Ġser",
        "v"
      ],
      [
        "ou",
        "nt"
      ],
      [
        "q",
        "u"
      ],
      [
        "or",
        "n"
      ],
      [
        "Ġwh",
        "ere"
      ],
      [
        "ĠW",
        "h"
      ],
      [
        "Ġwh",
        "om"
      ],
      [
        "Ġg",
        "reat"
      ],
      [
        "Ġp",
        "la"
      ],
      [
        "ĠL",
        "o"
      ],
      [
        "Ġg",
        "ive"
      ],
      [
        "v",
        "il"
      ],
      [
        "a",
        "st"
      ],
      [
        "Ġbec",
        "ause"
      ],
      [
        "Ġse",
        "e"
      ],
      [
        "a",
        "le"
      ],
      [
        "Ġgo",
        "od"
      ],
      [
        "Ġd",
        "is"
      ],
      [
        "Ġp",
        "ass"
      ],
      [
        "Ġhear",
        "t"
      ],
      [
        "Ġn",
        "or"
      ],
      [
        "i",
        "re"
      ],
      [
        "Ġfor",
        "th"
      ],
      [
        "Ġ",
        "R"
      ],
      [
        "l",
        "ea"
      ],
      [
        "rou",
        "ght"
      ],
      [
        "o",
        "th"
      ],
      [
        "i",
        "ther"
      ],
      [
        "ĠJ",
        "er"
      ],
      [
        "r",
        "y"
      ],
      [
        "os",
        "es"
      ],
      [
        "Ġs",
        "ou"
      ],
      [
        "Ġd",
        "ea"
      ],
      [
        "Ġac",
        "c"
      ],
      [
        "Ġs",
        "w"
      ],
      [
        "Ġs",
        "in"
      ],
      [
        "Ġam",
        "ong"
      ],
      [
        "Ġaw",
        "ay"
      ],
      [
        "ĠA",
        "b"
      ],
      [
        "ation",
        "s"
      ],
      [
        "Ġbel",
        "ie"
      ],
      [
        "ĠM",
        "oses"
      ],
      [
        "a",
        "c"
      ],
      [
        "a",
        "ll"
      ],
      [
        "om",
        "e"
      ],
      [
        "Ġp",
        "ri"
      ],
      [
        "Ġof",
        "f"
      ],
      [
        "an",
        "ce"
      ],
      [
        "sel",
        "f"
      ],
      [
        "Ġy",
        "ear"
      ],
      [
        "ha",
        "m"
      ],
      [
        "Ġn",
        "ame"
      ],
      [
        "Ġf",
        "o"
      ],
      [
        "i",
        "c"
      ],
      [
        "Ġw",
        "ay"
      ],
      [
        "ĠJ",
        "ud"
      ],
      [
        "Ġthe",
        "se"
      ],
      [
        "Ġp",
        "ut"
      ],
      [
        "Ġserv",
        "ant"
      ],
      [
        "Ġb",
        "rought"
      ],
      [
        "Ġsh",
        "ould"
      ],
      [
        "w",
        "n"
      ],
      [
        "Ġca",
        "ll"
      ],
      [
        "Ġan",
        "y"
      ],
      [
        "ĠJ",
        "e"
      ],
      [
        "nd",
        "er"
      ],
      [
        "Ġbr",
        "ing"
      ],
      [
        "at",
        "e"
      ],
      [
        "Ġc",
        "o"
      ],
      [
        "i",
        "gh"
      ],
      [
        "im",
        "e"
      ],
      [
        "Ġ",
        "Z"
      ],
      [
        "Ġw",
        "at"
      ],
      [
        "Ġm",
        "ight"
      ],
      [
        "Ġpri",
        "est"
      ],
      [
        "Ġs",
        "et"
      ],
      [
        "ou",
        "nd"
      ],
      [
        "Ġtw",
        "o"
      ],
      [
        "it",
        "e"
      ],
      [
        "re",
        "e"
      ],
      [
        "au",
        "ght"
      ],
      [
        "ĠA",
        "s"
      ],
      [
        "Ġs",
        "to"
      ],
      [
        "fer",
        "ing"
      ],
      [
        "Ġt",
        "ru"
      ],
      [
        "Ġs",
        "ent"
      ],
      [
        "Ġc",
        "ity"
      ],
      [
        "ĠS",
        "o"
      ],
      [
        "ĠJ",
        "es"
      ],
      [
        "Ġ",
        "r"
      ],
      [
        "Ġe",
        "vil"
      ],
      [
        "Ġwor",
        "k"
      ],
      [
        "o",
        "ther"
      ],
      [
        "i",
        "ed"
      ],
      [
        "ĠH",
        "im"
      ],
      [
        "Ġcomm",
        "and"
      ],
      [
        "ĠJud",
        "ah"
      ],
      [
        "â",
        "Ģ"
      ],
      [
        "u",
        "n"
      ],
      [
        "Ġl",
        "if"
      ],
      [
        "ord",
        "ing"
      ],
      [
        "Ġhea",
        "ven"
      ],
      [
        "Ġli",
        "ke"
      ],
      [
        "e",
        "f"
      ],
      [
        "Ġday",
        "s"
      ],
      [
        "Ġl",
        "a"
      ],
      [
        "eth",
        "er"
      ],
      [
        "ale",
        "m"
      ],
      [
        "ĠJer",
        "us"
      ],
      [
        "Ġth",
        "an"
      ],
      [
        "Ġacc",
        "ording"
      ],
      [
        "h",
        "e"
      ],
      [
        "ĠJerus",
        "alem"
      ],
      [
        "Ġb",
        "u"
      ],
      [
        "ea",
        "k"
      ],
      [
        "it",
        "t"
      ],
      [
        "Ġbe",
        "hold"
      ],
      [
        "Ġe",
        "x"
      ],
      [
        "Ġb",
        "ro"
      ],
      [
        "b",
        "e"
      ],
      [
        "f",
        "ul"
      ],
      [
        "Ġe",
        "at"
      ],
      [
        "a",
        "ve"
      ],
      [
        "Ġt",
        "urn"
      ],
      [
        "Ġd",
        "w"
      ],
      [
        "ar",
        "t"
      ],
      [
        "ĠB",
        "e"
      ],
      [
        "it",
        "es"
      ],
      [
        "ĠJes",
        "us"
      ],
      [
        "Ġne",
        "ither"
      ],
      [
        "u",
        "nd"
      ],
      [
        "c",
        "ri"
      ],
      [
        "g",
        "y"
      ],
      [
        "Ġg",
        "l"
      ],
      [
        "Ġab",
        "out"
      ],
      [
        "Ġs",
        "m"
      ],
      [
        "Ġm",
        "ore"
      ],
      [
        "Ġt",
        "ake"
      ],
      [
        "Ġ",
        "en"
      ],
      [
        "Ġm",
        "u"
      ],
      [
        "Ġre",
        "m"
      ],
      [
        "ig",
        "n"
      ],
      [
        "sel",
        "ves"
      ],
      [
        "ĠE",
        "gy"
      ],
      [
        "ĠEgy",
        "pt"
      ],
      [
        "o",
        "ke"
      ],
      [
        "il",
        "y"
      ],
      [
        "Ġto",
        "ok"
      ],
      [
        "Ġd",
        "el"
      ],
      [
        "u",
        "b"
      ],
      [
        "Ġo",
        "wn"
      ],
      [
        "v",
        "ing"
      ],
      [
        "Ġk",
        "e"
      ],
      [
        "t",
        "y"
      ],
      [
        "Ġno",
        "w"
      ],
      [
        "Ġw",
        "r"
      ],
      [
        "ĠM",
        "e"
      ],
      [
        "ea",
        "st"
      ],
      [
        "en",
        "ce"
      ],
      [
        "n",
        "e"
      ],
      [
        "o",
        "od"
      ],
      [
        "d",
        "om"
      ],
      [
        "Ġw",
        "om"
      ],
      [
        "Ġp",
        "er"
      ],
      [
        "er",
        "n"
      ],
      [
        "Ġthere",
        "fore"
      ],
      [
        "Ġpla",
        "ce"
      ],
      [
        "Ġ",
        "ro"
      ],
      [
        "ver",
        "s"
      ],
      [
        "k",
        "en"
      ],
      [
        "a",
        "ch"
      ],
      [
        "n",
        "g"
      ],
      [
        "e",
        "ous"
      ],
      [
        "Ġ",
        "K"
      ],
      [
        "Ġu",
        "nder"
      ],
      [
        "rou",
        "gh"
      ],
      [
        "Ġb",
        "a"
      ],
      [
        "or",
        "t"
      ],
      [
        "Ġd",
        "es"
      ],
      [
        "Ġc",
        "l"
      ],
      [
        "Ġa",
        "pp"
      ],
      [
        "Ġw",
        "ould"
      ],
      [
        "f",
        "e"
      ],
      [
        "i",
        "ven"
      ],
      [
        "Ġf",
        "ir"
      ],
      [
        "Ġpro",
        "ph"
      ],
      [
        "b",
        "er"
      ],
      [
        "Ġc",
        "ha"
      ],
      [
        "ĠC",
        "h"
      ],
      [
        "Ġan",
        "g"
      ],
      [
        "ĠThe",
        "y"
      ],
      [
        "Ġe",
        "y"
      ],
      [
        "o",
        "ice"
      ],
      [
        "u",
        "e"
      ],
      [
        "Ġth",
        "rough"
      ],
      [
        "e",
        "ver"
      ],
      [
        "Ġsp",
        "eak"
      ],
      [
        "er",
        "c"
      ],
      [
        "au",
        "l"
      ],
      [
        "Ġp",
        "re"
      ],
      [
        "Ġg",
        "u"
      ],
      [
        "Ġsou",
        "l"
      ],
      [
        "ĠTh",
        "ere"
      ],
      [
        "Ġ",
        "ver"
      ],
      [
        "Ġcall",
        "ed"
      ],
      [
        "e",
        "en"
      ],
      [
        "Ġf",
        "l"
      ],
      [
        "Ġbe",
        "t"
      ],
      [
        "ĠN",
        "ow"
      ],
      [
        "in",
        "k"
      ],
      [
        "ri",
        "ed"
      ],
      [
        "o",
        "in"
      ],
      [
        "Ġh",
        "und"
      ],
      [
        "Ġhund",
        "red"
      ],
      [
        "?",
        "'"
      ],
      [
        "ĠW",
        "ho"
      ],
      [
        "Ġright",
        "eous"
      ],
      [
        "Ġt",
        "ime"
      ],
      [
        "o",
        "b"
      ],
      [
        "Ġhear",
        "d"
      ],
      [
        "Ġre",
        "t"
      ],
      [
        "of",
        "fering"
      ],
      [
        "r",
        "ist"
      ],
      [
        "Ġfir",
        "st"
      ],
      [
        "s",
        "and"
      ],
      [
        "ea",
        "d"
      ],
      [
        "Ġj",
        "ud"
      ],
      [
        "Ġthou",
        "sand"
      ],
      [
        "Ġ",
        "ra"
      ],
      [
        "Ġo",
        "ther"
      ],
      [
        "Ġb",
        "urn"
      ],
      [
        "Ġbelie",
        "ve"
      ],
      [
        "Ġpr",
        "ay"
      ],
      [
        "s",
        "w"
      ],
      [
        "ĠCh",
        "rist"
      ],
      [
        "Ġse",
        "ven"
      ],
      [
        "Ġfather",
        "s"
      ],
      [
        "o",
        "nd"
      ],
      [
        "Ġyear",
        "s"
      ],
      [
        "Ġs",
        "ea"
      ],
      [
        "Ġf",
        "ire"
      ],
      [
        "rou",
        "nd"
      ],
      [
        "Ġbe",
        "g"
      ],
      [
        "âĢ",
        "Ķ"
      ],
      [
        "ir",
        "it"
      ],
      [
        "Ġan",
        "sw"
      ],
      [
        "Ġy",
        "et"
      ],
      [
        "Ġ",
        "âĢĶ"
      ],
      [
        "Ġlif",
        "e"
      ],
      [
        "l",
        "i"
      ],
      [
        "Ġ",
        "Y"
      ],
      [
        "Ġd",
        "one"
      ],
      [
        "Ġret",
        "urn"
      ],
      [
        "Ġg",
        "iven"
      ],
      [
        "Ġc",
        "an"
      ],
      [
        "Ġbe",
        "en"
      ],
      [
        "Ġsa",
        "w"
      ],
      [
        "Ġd",
        "aught"
      ],
      [
        "en",
        "g"
      ],
      [
        "Ġho",
        "st"
      ],
      [
        "b",
        "le"
      ],
      [
        "Ġth",
        "ing"
      ],
      [
        "Ġhea",
        "d"
      ],
      [
        "a",
        "g"
      ],
      [
        "ĠA",
        "m"
      ],
      [
        "Ġdw",
        "ell"
      ],
      [
        "Ġst",
        "r"
      ],
      [
        "Ġgl",
        "or"
      ],
      [
        "Ġf",
        "ound"
      ],
      [
        "Ġey",
        "es"
      ],
      [
        "o",
        "st"
      ],
      [
        "an",
        "s"
      ],
      [
        "ck",
        "ed"
      ],
      [
        "Ġe",
        "nd"
      ],
      [
        "Ġg",
        "ave"
      ],
      [
        "th",
        "ren"
      ],
      [
        "it",
        "ies"
      ],
      [
        "u",
        "st"
      ],
      [
        "m",
        "e"
      ],
      [
        "Ġm",
        "ount"
      ],
      [
        "Ġman",
        "y"
      ],
      [
        "res",
        "s"
      ],
      [
        "g",
        "ether"
      ],
      [
        "o",
        "h"
      ],
      [
        "Ġf",
        "our"
      ],
      [
        "Ġd",
        "est"
      ],
      [
        "Ġcon",
        "c"
      ],
      [
        "Ġbre",
        "thren"
      ],
      [
        "b",
        "el"
      ],
      [
        "Ġsp",
        "oke"
      ],
      [
        "Ġke",
        "ep"
      ],
      [
        "Ġar",
        "t"
      ],
      [
        "ĠThe",
        "e"
      ],
      [
        "p",
        "en"
      ],
      [
        "Ġs",
        "l"
      ],
      [
        "Ġsa",
        "ve"
      ],
      [
        "Ġp",
        "l"
      ],
      [
        "Ġp",
        "art"
      ],
      [
        "Ġan",
        "other"
      ],
      [
        "Ġgo",
        "ld"
      ],
      [
        "s",
        "es"
      ],
      [
        "Ġword",
        "s"
      ],
      [
        "Ġto",
        "gether"
      ],
      [
        "a",
        "re"
      ],
      [
        "Ġm",
        "ea"
      ],
      [
        "hi",
        "p"
      ],
      [
        "at",
        "t"
      ],
      [
        "h",
        "er"
      ],
      [
        "Ġho",
        "ly"
      ],
      [
        "Ġth",
        "ree"
      ],
      [
        "Ġm",
        "ess"
      ],
      [
        "ll",
        "ow"
      ],
      [
        "al",
        "k"
      ],
      [
        "e",
        "nd"
      ],
      [
        "Ġproph",
        "et"
      ],
      [
        "Ġf",
        "e"
      ],
      [
        "so",
        "ever"
      ],
      [
        "Ġt",
        "ri"
      ],
      [
        "Ġhim",
        "self"
      ],
      [
        "Ġca",
        "pt"
      ],
      [
        "ea",
        "ce"
      ],
      [
        "ĠI",
        "f"
      ],
      [
        "Ġg",
        "ra"
      ],
      [
        "Ġw",
        "ar"
      ],
      [
        "Ġla",
        "w"
      ],
      [
        "T",
        "h"
      ],
      [
        "t",
        "ain"
      ],
      [
        "ow",
        "er"
      ],
      [
        "u",
        "ll"
      ],
      [
        "Ġh",
        "ow"
      ],
      [
        "r",
        "ink"
      ],
      [
        "Ġm",
        "erc"
      ],
      [
        "Ġn",
        "ations"
      ],
      [
        "Ġca",
        "st"
      ],
      [
        "Ġon",
        "ly"
      ],
      [
        "c",
        "i"
      ],
      [
        "ou",
        "th"
      ],
      [
        "Ġc",
        "ause"
      ],
      [
        "Ġbl",
        "ood"
      ],
      [
        "bel",
        "ie"
      ],
      [
        "lea",
        "n"
      ],
      [
        "Ġt",
        "ak"
      ],
      [
        "Ġthem",
        "selves"
      ],
      [
        "Ġhand",
        "s"
      ],
      [
        "Ġf",
        "am"
      ],
      [
        "o",
        "ck"
      ],
      [
        "Ġ",
        "ru"
      ],
      [
        "Ġa",
        "lt"
      ],
      [
        "is",
        "ed"
      ],
      [
        "ĠS",
        "aul"
      ],
      [
        "Ġv",
        "oice"
      ],
      [
        "Ġservant",
        "s"
      ],
      [
        "Ġwat",
        "er"
      ],
      [
        "Ġmess",
        "eng"
      ],
      [
        "Ġb",
        "es"
      ],
      [
        "Ġre",
        "p"
      ],
      [
        "ĠTh",
        "us"
      ],
      [
        "Ġsw",
        "ord"
      ],
      [
        "Ġo",
        "ld"
      ],
      [
        "ha",
        "b"
      ],
      [
        "n",
        "er"
      ],
      [
        "Ġalt",
        "ar"
      ],
      [
        "Ġp",
        "res"
      ],
      [
        "Ġwi",
        "cked"
      ],
      [
        "ro",
        "y"
      ],
      [
        "Ġth",
        "ir"
      ],
      [
        "Ġlo",
        "ve"
      ],
      [
        "Ġthere",
        "in"
      ],
      [
        "Ġ",
        "ent"
      ],
      [
        "Ġfa",
        "ith"
      ],
      [
        "Ġconc",
        "ern"
      ],
      [
        "ĠS",
        "h"
      ],
      [
        "Ġbre",
        "ad"
      ],
      [
        "Ġba",
        "ck"
      ],
      [
        "les",
        "h"
      ],
      [
        "Ġtru",
        "th"
      ],
      [
        "Ġf",
        "ear"
      ],
      [
        "Ġo",
        "pen"
      ],
      [
        "ĠP",
        "ha"
      ],
      [
        "Ġdest",
        "roy"
      ],
      [
        "Ġha",
        "r"
      ],
      [
        "Ġwith",
        "out"
      ],
      [
        "Ġp",
        "eace"
      ],
      [
        "Ġpr",
        "in"
      ],
      [
        "r",
        "ow"
      ],
      [
        "Ġc",
        "ities"
      ],
      [
        "Ġdis",
        "belie"
      ],
      [
        "Ġcommand",
        "ed"
      ],
      [
        "Ġf",
        "lesh"
      ],
      [
        "Ġt",
        "re"
      ],
      [
        ")",
        "."
      ],
      [
        "Ġh",
        "igh"
      ],
      [
        "Ġ",
        "U"
      ],
      [
        "ĠI",
        "n"
      ],
      [
        "ct",
        "ion"
      ],
      [
        "a",
        "ther"
      ],
      [
        "Ġm",
        "id"
      ],
      [
        "A",
        "nd"
      ],
      [
        "Ġm",
        "outh"
      ],
      [
        "Ġit",
        "s"
      ],
      [
        "Ġdea",
        "th"
      ],
      [
        "s",
        "p"
      ],
      [
        "Ġbro",
        "ther"
      ],
      [
        "e",
        "b"
      ],
      [
        "Ġd",
        "rink"
      ],
      [
        "Ġconcern",
        "ing"
      ],
      [
        "Ġw",
        "alk"
      ],
      [
        "Ġto",
        "ward"
      ],
      [
        "Ġfa",
        "ll"
      ],
      [
        "Ġcon",
        "t"
      ],
      [
        "i",
        "v"
      ],
      [
        "Ġb",
        "o"
      ],
      [
        "Ġfa",
        "ce"
      ],
      [
        "Ġglor",
        "y"
      ],
      [
        "el",
        "s"
      ],
      [
        "u",
        "ch"
      ],
      [
        "Ġs",
        "ide"
      ],
      [
        "Ġun",
        "c"
      ],
      [
        "Ġsp",
        "irit"
      ],
      [
        "Ġs",
        "c"
      ],
      [
        "Ġwor",
        "ld"
      ],
      [
        "Ġst",
        "and"
      ],
      [
        "ac",
        "ob"
      ],
      [
        "Ġwi",
        "fe"
      ],
      [
        "i",
        "a"
      ],
      [
        "Ġa",
        "d"
      ],
      [
        "e",
        "v"
      ],
      [
        "ĠJ",
        "acob"
      ],
      [
        "ĠP",
        "h"
      ],
      [
        "d",
        "en"
      ],
      [
        "ar",
        "on"
      ],
      [
        "ĠA",
        "aron"
      ],
      [
        "Ġg",
        "od"
      ],
      [
        "Ġcom",
        "p"
      ],
      [
        "Ġansw",
        "ered"
      ],
      [
        "f",
        "or"
      ],
      [
        "Ġs",
        "il"
      ],
      [
        "Ġn",
        "one"
      ],
      [
        "ĠTh",
        "is"
      ],
      [
        "Ġjud",
        "g"
      ],
      [
        "Ġs",
        "i"
      ],
      [
        "Ġfo",
        "llow"
      ],
      [
        "Ġc",
        "ar"
      ],
      [
        "Ġl",
        "ight"
      ],
      [
        "o",
        "ve"
      ],
      [
        "ĠTh",
        "at"
      ],
      [
        "Ġsu",
        "re"
      ],
      [
        "Ġlo",
        "ok"
      ],
      [
        "Ġun",
        "t"
      ],
      [
        "ent",
        "y"
      ],
      [
        "Ġn",
        "ight"
      ],
      [
        "ra",
        "oh"
      ],
      [
        "Ġdea",
        "d"
      ],
      [
        "ie",
        "ld"
      ],
      [
        "Ġfor",
        "g"
      ],
      [
        "Ġver",
        "ily"
      ],
      [
        "ish",
        "ed"
      ],
      [
        "Ġunt",
        "il"
      ],
      [
        "Ġth",
        "ine"
      ],
      [
        "ĠBe",
        "hold"
      ],
      [
        "Ġmid",
        "st"
      ],
      [
        "oin",
        "ted"
      ],
      [
        "Ġre",
        "ign"
      ],
      [
        "Ġsee",
        "k"
      ],
      [
        "Ġbet",
        "w"
      ],
      [
        "Ġl",
        "ive"
      ],
      [
        "ain",
        "s"
      ],
      [
        "ĠPha",
        "raoh"
      ],
      [
        "ĠS",
        "ay"
      ],
      [
        "ĠWh",
        "en"
      ],
      [
        "Ġmerc",
        "y"
      ],
      [
        "i",
        "ver"
      ],
      [
        "am",
        "p"
      ],
      [
        "Ġtak",
        "en"
      ],
      [
        "ĠPh",
        "il"
      ],
      [
        "Ġbl",
        "ess"
      ],
      [
        "re",
        "t"
      ],
      [
        "Ġwho",
        "se"
      ],
      [
        "Ġburn",
        "t"
      ],
      [
        "w",
        "ith"
      ],
      [
        "Ġ",
        "qu"
      ],
      [
        "Ġt",
        "en"
      ],
      [
        "Ġwom",
        "an"
      ],
      [
        "a",
        "i"
      ],
      [
        "a",
        "ge"
      ],
      [
        "s",
        "hip"
      ],
      [
        "Ġ",
        "im"
      ],
      [
        "Ġ",
        "round"
      ],
      [
        "Ġme",
        "et"
      ],
      [
        "a",
        "z"
      ],
      [
        "Ġre",
        "ce"
      ],
      [
        "Ġbetw",
        "een"
      ],
      [
        "ĠA",
        "r"
      ],
      [
        "Ġhost",
        "s"
      ],
      [
        "Ġl",
        "ef"
      ],
      [
        "Ġpriest",
        "s"
      ],
      [
        "Ġlef",
        "t"
      ],
      [
        "ment",
        "s"
      ],
      [
        "ĠThere",
        "fore"
      ],
      [
        "Ġs",
        "ight"
      ],
      [
        "Ġturn",
        "ed"
      ],
      [
        "Ġs",
        "ome"
      ],
      [
        "l",
        "on"
      ],
      [
        "e",
        "k"
      ],
      [
        "h",
        "u"
      ],
      [
        "Ġb",
        "oth"
      ],
      [
        "Ġf",
        "ell"
      ],
      [
        "ar",
        "y"
      ],
      [
        "Ġas",
        "k"
      ],
      [
        "Ġf",
        "ive"
      ],
      [
        "it",
        "s"
      ],
      [
        "Ġse",
        "c"
      ],
      [
        "Ġen",
        "em"
      ],
      [
        "om",
        "on"
      ],
      [
        "Ġre",
        "st"
      ],
      [
        "ĠS",
        "am"
      ],
      [
        "ven",
        "ant"
      ],
      [
        "Ġcom",
        "eth"
      ],
      [
        "ol",
        "omon"
      ],
      [
        "Ġco",
        "venant"
      ],
      [
        "itt",
        "en"
      ],
      [
        "o",
        "ab"
      ],
      [
        "Ġking",
        "s"
      ],
      [
        "e",
        "c"
      ],
      [
        "Ġking",
        "dom"
      ],
      [
        "Ġb",
        "east"
      ],
      [
        "Ġyou",
        "ng"
      ],
      [
        "Ġde",
        "p"
      ],
      [
        "Ġm",
        "on"
      ],
      [
        "Ġf",
        "ield"
      ],
      [
        "Ġbe",
        "ing"
      ],
      [
        "ill",
        "ed"
      ],
      [
        "s",
        "ed"
      ],
      [
        "Ġb",
        "ear"
      ],
      [
        "ĠS",
        "olomon"
      ],
      [
        "att",
        "le"
      ],
      [
        "W",
        "h"
      ],
      [
        "Ġwi",
        "ld"
      ],
      [
        "O",
        "D"
      ],
      [
        "ĠG",
        "OD"
      ],
      [
        "Ġsu",
        "ch"
      ],
      [
        "Ġsil",
        "ver"
      ],
      [
        "Ġd",
        "ie"
      ],
      [
        "Ġn",
        "um"
      ],
      [
        "Ġth",
        "us"
      ],
      [
        "Ġs",
        "le"
      ],
      [
        "ĠL",
        "et"
      ],
      [
        "ra",
        "ham"
      ],
      [
        "Ġsto",
        "od"
      ],
      [
        "i",
        "qu"
      ],
      [
        "t",
        "s"
      ],
      [
        "v",
        "our"
      ],
      [
        "Ġin",
        "c"
      ],
      [
        "Ġin",
        "iqu"
      ],
      [
        "ĠB",
        "en"
      ],
      [
        "Ġmon",
        "th"
      ],
      [
        "ea",
        "ch"
      ],
      [
        "Ġt",
        "ent"
      ],
      [
        "Ġse",
        "nd"
      ],
      [
        "in",
        "es"
      ],
      [
        "w",
        "s"
      ],
      [
        "Ġl",
        "ea"
      ],
      [
        "led",
        "ge"
      ],
      [
        "Ġsa",
        "me"
      ],
      [
        "ion",
        "s"
      ],
      [
        "ĠO",
        "ur"
      ],
      [
        "Ġor",
        "d"
      ],
      [
        "ĠAb",
        "raham"
      ],
      [
        "ĠL",
        "ev"
      ],
      [
        "Ġc",
        "ut"
      ],
      [
        "ĠB",
        "ab"
      ],
      [
        "Ġchi",
        "ef"
      ],
      [
        "ĠPhil",
        "ist"
      ],
      [
        "Ġp",
        "ur"
      ],
      [
        "Ġdel",
        "ive"
      ],
      [
        "y",
        "lon"
      ],
      [
        "Ġp",
        "o"
      ],
      [
        "Ġl",
        "ord"
      ],
      [
        "i",
        "ld"
      ],
      [
        "re",
        "ad"
      ],
      [
        "ĠBab",
        "ylon"
      ],
      [
        "Ġk",
        "ind"
      ],
      [
        "Ġhe",
        "l"
      ],
      [
        "ar",
        "s"
      ],
      [
        "Ġwr",
        "ong"
      ],
      [
        "n",
        "ed"
      ],
      [
        "Ġrighteous",
        "ness"
      ],
      [
        "Ġsure",
        "ly"
      ],
      [
        "Ġm",
        "other"
      ],
      [
        "Ġc",
        "ho"
      ],
      [
        "Ġsa",
        "cri"
      ],
      [
        "if",
        "ied"
      ],
      [
        "ol",
        "k"
      ],
      [
        "ĠWh",
        "ere"
      ],
      [
        "Ġf",
        "ull"
      ],
      [
        "Ġsacri",
        "f"
      ],
      [
        "Ġm",
        "ine"
      ],
      [
        "Ġc",
        "reat"
      ],
      [
        "an",
        "ct"
      ],
      [
        "l",
        "ess"
      ],
      [
        "Ġp",
        "lea"
      ],
      [
        "ar",
        "k"
      ],
      [
        "ab",
        "le"
      ],
      [
        "Ġp",
        "ower"
      ],
      [
        "ĠR",
        "e"
      ],
      [
        "ou",
        "n"
      ],
      [
        "is",
        "ter"
      ],
      [
        "ea",
        "l"
      ],
      [
        "Ġdaught",
        "er"
      ],
      [
        "os",
        "s"
      ],
      [
        "Ġhel",
        "p"
      ],
      [
        "Ġin",
        "her"
      ],
      [
        "Ġw",
        "a"
      ],
      [
        "Ġrem",
        "em"
      ],
      [
        "T",
        "he"
      ],
      [
        "Ġp",
        "ra"
      ],
      [
        "Ġre",
        "j"
      ],
      [
        "i",
        "le"
      ],
      [
        "ve",
        "l"
      ],
      [
        "ri",
        "ght"
      ],
      [
        "st",
        "and"
      ],
      [
        "il",
        "t"
      ],
      [
        "Ġse",
        "en"
      ],
      [
        "Ġtw",
        "enty"
      ],
      [
        "Ġheaven",
        "s"
      ],
      [
        "Ġinher",
        "it"
      ],
      [
        "er",
        "ness"
      ],
      [
        "Ġto",
        "ld"
      ],
      [
        "Ġwhi",
        "le"
      ],
      [
        "ot",
        "e"
      ],
      [
        "Ġwild",
        "erness"
      ],
      [
        "Ġy",
        "ea"
      ],
      [
        "ose",
        "ph"
      ],
      [
        "Ġde",
        "c"
      ],
      [
        "Ġwat",
        "ers"
      ],
      [
        "Ġmight",
        "y"
      ],
      [
        "Ġmu",
        "lt"
      ],
      [
        "r",
        "on"
      ],
      [
        "Ġsp",
        "ok"
      ],
      [
        "Ġwork",
        "s"
      ],
      [
        "Ġc",
        "ount"
      ],
      [
        "Ġl",
        "ong"
      ],
      [
        "Ġg",
        "ath"
      ],
      [
        "ce",
        "pt"
      ],
      [
        "fer",
        "ings"
      ],
      [
        "hab",
        "it"
      ],
      [
        "Ġdelive",
        "red"
      ],
      [
        "Ġin",
        "habit"
      ],
      [
        "Ġfr",
        "u"
      ],
      [
        "Ġar",
        "m"
      ],
      [
        "ham",
        "m"
      ],
      [
        "b",
        "s"
      ],
      [
        "f",
        "f"
      ],
      [
        "Ġf",
        "olk"
      ],
      [
        "ĠJ",
        "os"
      ],
      [
        "e",
        "w"
      ],
      [
        "es",
        "e"
      ],
      [
        "Ġse",
        "ed"
      ],
      [
        "s",
        "u"
      ],
      [
        "Ġ",
        "-"
      ],
      [
        "ha",
        "n"
      ],
      [
        "ĠJ",
        "oseph"
      ],
      [
        "p",
        "le"
      ],
      [
        "Ġs",
        "anct"
      ],
      [
        "Ġknow",
        "ledge"
      ],
      [
        "Ġsi",
        "x"
      ],
      [
        "Ġspok",
        "en"
      ],
      [
        "i",
        "ved"
      ],
      [
        "Ġmu",
        "ch"
      ],
      [
        "m",
        "b"
      ],
      [
        "an",
        "g"
      ],
      [
        "el",
        "t"
      ],
      [
        "Ġre",
        "f"
      ],
      [
        "Ġn",
        "ear"
      ],
      [
        "Ġc",
        "ub"
      ],
      [
        "Ġwe",
        "ll"
      ],
      [
        "Ġsm",
        "ote"
      ],
      [
        "ĠPhilist",
        "ines"
      ],
      [
        "Ġf",
        "if"
      ],
      [
        "ĠI",
        "t"
      ],
      [
        "ĠY",
        "e"
      ],
      [
        "ant",
        "s"
      ],
      [
        "ĠJe",
        "ws"
      ],
      [
        "ĠB",
        "eth"
      ],
      [
        "Ġprin",
        "ces"
      ],
      [
        "re",
        "th"
      ],
      [
        "Ġthou",
        "gh"
      ],
      [
        "g",
        "th"
      ],
      [
        "Ġp",
        "ort"
      ],
      [
        "ch",
        "es"
      ],
      [
        "ren",
        "gth"
      ],
      [
        "Ġar",
        "k"
      ],
      [
        "Ġb",
        "ord"
      ],
      [
        "Ġl",
        "ay"
      ],
      [
        "as",
        "h"
      ],
      [
        "âĢ",
        "Ļ"
      ],
      [
        "u",
        "hamm"
      ],
      [
        "Ġst",
        "rength"
      ],
      [
        "Ġbu",
        "ild"
      ],
      [
        "Ġwom",
        "en"
      ],
      [
        "uhamm",
        "ad"
      ],
      [
        "o",
        "y"
      ],
      [
        "z",
        "ar"
      ],
      [
        "Ġw",
        "it"
      ],
      [
        "Ġg",
        "ate"
      ],
      [
        "Ġre",
        "v"
      ],
      [
        "Ġdel",
        "iver"
      ],
      [
        "ĠTh",
        "ese"
      ],
      [
        "p",
        "s"
      ],
      [
        "Ġb",
        "ow"
      ],
      [
        "Ġwr",
        "itten"
      ],
      [
        "Ġapp",
        "ointed"
      ],
      [
        "Ġiniqu",
        "ity"
      ],
      [
        "Ġ",
        "ind"
      ],
      [
        "Ġpro",
        "v"
      ],
      [
        "cri",
        "pt"
      ],
      [
        "Ġmesseng",
        "er"
      ],
      [
        "Ġgath",
        "ered"
      ],
      [
        "ĠJe",
        "ho"
      ],
      [
        ")",
        ":"
      ],
      [
        "is",
        "ion"
      ],
      [
        "ch",
        "ed"
      ],
      [
        "Ġd",
        "en"
      ],
      [
        "Ġbec",
        "ome"
      ],
      [
        "Ġdaught",
        "ers"
      ],
      [
        "e",
        "ed"
      ],
      [
        "m",
        "on"
      ],
      [
        "Ġwho",
        "le"
      ],
      [
        "Ġhear",
        "ken"
      ],
      [
        "Ġhou",
        "ses"
      ],
      [
        "n",
        "ing"
      ],
      [
        "Ġs",
        "k"
      ],
      [
        "in",
        "s"
      ],
      [
        "Ġm",
        "ak"
      ],
      [
        "Ġm",
        "orn"
      ],
      [
        "Ġt",
        "em"
      ],
      [
        "Ġab",
        "ove"
      ],
      [
        "Ġunder",
        "stand"
      ],
      [
        "Ġfe",
        "et"
      ],
      [
        "s",
        "al"
      ],
      [
        "Ġf",
        "ind"
      ],
      [
        "Ġdo",
        "or"
      ],
      [
        "Ġcon",
        "s"
      ],
      [
        "Ġt",
        "r"
      ],
      [
        "a",
        "il"
      ],
      [
        "i",
        "ck"
      ],
      [
        "m",
        "en"
      ],
      [
        "Ġh",
        "or"
      ],
      [
        "Ġg",
        "en"
      ],
      [
        "a",
        "p"
      ],
      [
        "it",
        "ud"
      ],
      [
        "Ġwi",
        "lt"
      ],
      [
        "Ġla",
        "id"
      ],
      [
        "e",
        "ct"
      ],
      [
        "Ġw",
        "is"
      ],
      [
        "ĠE",
        "ph"
      ],
      [
        "Ġ",
        "est"
      ],
      [
        "Ġs",
        "at"
      ],
      [
        "Ġc",
        "ur"
      ],
      [
        "Ġre",
        "c"
      ],
      [
        "Ġprophet",
        "s"
      ],
      [
        "Ġtri",
        "be"
      ],
      [
        "n",
        "s"
      ],
      [
        "Ġm",
        "o"
      ],
      [
        "Ġfru",
        "it"
      ],
      [
        "k",
        "ind"
      ],
      [
        "r",
        "ay"
      ],
      [
        "Ġcon",
        "f"
      ],
      [
        "Ġunc",
        "lean"
      ],
      [
        "Ġwit",
        "ness"
      ],
      [
        "Ġwor",
        "ship"
      ],
      [
        "Ġstr",
        "ong"
      ],
      [
        "Ġc",
        "our"
      ],
      [
        "ĠH",
        "ow"
      ],
      [
        "Ġmorn",
        "ing"
      ],
      [
        "es",
        "c"
      ],
      [
        "Ġre",
        "vel"
      ],
      [
        "ĠE",
        "li"
      ],
      [
        "Ġgod",
        "s"
      ],
      [
        "hu",
        "a"
      ],
      [
        "o",
        "ver"
      ],
      [
        "ĠS",
        "he"
      ],
      [
        "itt",
        "le"
      ],
      [
        "k",
        "s"
      ],
      [
        "ĠF",
        "ather"
      ],
      [
        "th",
        "ing"
      ],
      [
        "Ġof",
        "fering"
      ],
      [
        "if",
        "y"
      ],
      [
        "ĠE",
        "l"
      ],
      [
        "Ġknow",
        "n"
      ],
      [
        "Ġver",
        "y"
      ],
      [
        "Ġp",
        "oss"
      ],
      [
        "Ġw",
        "ise"
      ],
      [
        "er",
        "tain"
      ],
      [
        "of",
        "ferings"
      ],
      [
        "Ġwis",
        "dom"
      ],
      [
        "ou",
        "d"
      ],
      [
        "Ġd",
        "re"
      ],
      [
        "Ġp",
        "it"
      ],
      [
        "Ġt",
        "ell"
      ],
      [
        "Ġaf",
        "f"
      ],
      [
        "Ġj",
        "ust"
      ],
      [
        "Ġdid",
        "st"
      ],
      [
        "Ġg",
        "one"
      ],
      [
        "cript",
        "ure"
      ],
      [
        "Ġgen",
        "er"
      ],
      [
        "itud",
        "e"
      ],
      [
        ")",
        ","
      ],
      [
        "Ġwhere",
        "in"
      ],
      [
        "Ġgu",
        "id"
      ],
      [
        "ĠLev",
        "ites"
      ],
      [
        "Ġcub",
        "its"
      ],
      [
        "i",
        "b"
      ],
      [
        "Ġu",
        "t"
      ],
      [
        "Ġdo",
        "th"
      ],
      [
        "ut",
        "e"
      ],
      [
        "i",
        "z"
      ],
      [
        "Ġl",
        "ittle"
      ],
      [
        "Ġdw",
        "elt"
      ],
      [
        "u",
        "el"
      ],
      [
        "Ġt",
        "est"
      ],
      [
        "Ġt",
        "ill"
      ],
      [
        "Ġre",
        "s"
      ],
      [
        "ĠS",
        "p"
      ],
      [
        "ĠS",
        "ha"
      ],
      [
        "Ġang",
        "el"
      ],
      [
        "Ġbes",
        "ide"
      ],
      [
        "Ġposs",
        "ess"
      ],
      [
        "Ġl",
        "est"
      ],
      [
        "Ġyour",
        "selves"
      ],
      [
        "Ġpeop",
        "les"
      ],
      [
        "Ġenem",
        "ies"
      ],
      [
        "ot",
        "s"
      ],
      [
        "Ġknow",
        "eth"
      ],
      [
        "ĠWh",
        "at"
      ],
      [
        "Ġheart",
        "s"
      ],
      [
        "Ġbord",
        "er"
      ],
      [
        "Ġw",
        "ine"
      ],
      [
        "ĠM",
        "an"
      ],
      [
        "Ġreturn",
        "ed"
      ],
      [
        "ĠJos",
        "hua"
      ],
      [
        "om",
        "in"
      ],
      [
        "ra",
        "th"
      ],
      [
        "ou",
        "red"
      ],
      [
        "Ġc",
        "ould"
      ],
      [
        "Ġc",
        "ertain"
      ],
      [
        "Ġd",
        "ied"
      ],
      [
        "Ġinherit",
        "ance"
      ],
      [
        "n",
        "ot"
      ],
      [
        "Ġw",
        "all"
      ],
      [
        "Ġm",
        "in"
      ],
      [
        "Ġno",
        "thing"
      ],
      [
        "Ġst",
        "ri"
      ],
      [
        "ab",
        "l"
      ],
      [
        "Ġde",
        "v"
      ],
      [
        "Ġho",
        "ld"
      ],
      [
        "at",
        "ter"
      ],
      [
        "Ġdo",
        "om"
      ],
      [
        "d",
        "o"
      ],
      [
        "Ġc",
        "oun"
      ],
      [
        "Ġsa",
        "l"
      ],
      [
        "Ġth",
        "r"
      ],
      [
        "on",
        "s"
      ],
      [
        "es",
        "sel"
      ],
      [
        "Ġwi",
        "nd"
      ],
      [
        "Ġv",
        "essel"
      ],
      [
        "Ġsu",
        "n"
      ],
      [
        "s",
        "y"
      ],
      [
        "at",
        "ed"
      ],
      [
        "Ġhe",
        "re"
      ],
      [
        "Ġcan",
        "not"
      ],
      [
        "e",
        "e"
      ],
      [
        "i",
        "el"
      ],
      [
        "Ġtru",
        "st"
      ],
      [
        "g",
        "ed"
      ],
      [
        "Ġg",
        "ar"
      ],
      [
        "Ġpr",
        "om"
      ],
      [
        "Ġpla",
        "ces"
      ],
      [
        "ne",
        "y"
      ],
      [
        "i",
        "red"
      ],
      [
        "ou",
        "ght"
      ],
      [
        "ard",
        "en"
      ],
      [
        "Ġjud",
        "ge"
      ],
      [
        "Ġ",
        "id"
      ],
      [
        "Ġh",
        "on"
      ],
      [
        "re",
        "g"
      ],
      [
        "Ġc",
        "ry"
      ],
      [
        "as",
        "se"
      ],
      [
        "Ġj",
        "oy"
      ],
      [
        "Ġwhere",
        "with"
      ],
      [
        "Ġpres",
        "ent"
      ],
      [
        "B",
        "e"
      ],
      [
        "th",
        "e"
      ],
      [
        "Ġb",
        "od"
      ],
      [
        "Ġc",
        "ong"
      ],
      [
        "ea",
        "led"
      ],
      [
        "ra",
        "im"
      ],
      [
        "Ġkn",
        "ew"
      ],
      [
        "Ġt",
        "ab"
      ],
      [
        "Ġser",
        "ve"
      ],
      [
        "Ġtr",
        "ans"
      ],
      [
        "Ġcong",
        "reg"
      ],
      [
        "s",
        "ure"
      ],
      [
        "ek",
        "iah"
      ],
      [
        "Ġinhabit",
        "ants"
      ],
      [
        "Ġcongreg",
        "ation"
      ],
      [
        "b",
        "ered"
      ],
      [
        "l",
        "se"
      ],
      [
        "Ġl",
        "ie"
      ],
      [
        "et",
        "s"
      ],
      [
        "ĠE",
        "s"
      ],
      [
        "ath",
        "an"
      ],
      [
        "Ġbeg",
        "ot"
      ],
      [
        "Ġf",
        "ar"
      ],
      [
        "Ġc",
        "lean"
      ],
      [
        "Ġd",
        "iv"
      ],
      [
        "Ġcha",
        "r"
      ],
      [
        "Ġbet",
        "ter"
      ],
      [
        "Ġsl",
        "ain"
      ],
      [
        "Ġfam",
        "il"
      ],
      [
        "i",
        "ans"
      ],
      [
        "o",
        "il"
      ],
      [
        "Ġo",
        "il"
      ],
      [
        "Ġw",
        "rath"
      ],
      [
        "Ġman",
        "ner"
      ],
      [
        "Ġtw",
        "el"
      ],
      [
        "Ġcl",
        "oth"
      ],
      [
        "Ġfl",
        "ock"
      ],
      [
        "Ġest",
        "abl"
      ],
      [
        "im",
        "on"
      ],
      [
        "ĠC",
        "an"
      ],
      [
        "Ġcont",
        "in"
      ],
      [
        "Ġpo",
        "or"
      ],
      [
        "Ġh",
        "ill"
      ],
      [
        "Ġre",
        "ad"
      ],
      [
        "Ġsh",
        "ow"
      ],
      [
        "Ġrevel",
        "ations"
      ],
      [
        "j",
        "ah"
      ],
      [
        "ĠM",
        "uhammad"
      ],
      [
        "ĠB",
        "a"
      ],
      [
        "Ġsin",
        "s"
      ],
      [
        "i",
        "ving"
      ],
      [
        "j",
        "am"
      ],
      [
        "ere",
        "th"
      ],
      [
        "ĠM",
        "ine"
      ],
      [
        "Ġind",
        "eed"
      ],
      [
        "a",
        "iah"
      ],
      [
        "i",
        "p"
      ],
      [
        "Ġ",
        "east"
      ],
      [
        "Ġp",
        "un"
      ],
      [
        "Ġang",
        "er"
      ],
      [
        "g",
        "ress"
      ],
      [
        "Ġt",
        "er"
      ],
      [
        "ut",
        "y"
      ],
      [
        "ast",
        "er"
      ],
      [
        "Ġcreat",
        "ed"
      ],
      [
        "Ġpra",
        "ise"
      ],
      [
        "Ġmult",
        "itude"
      ],
      [
        "Ġof",
        "fer"
      ],
      [
        "Ġman",
        "kind"
      ],
      [
        "Ġst",
        "at"
      ],
      [
        "Ġbre",
        "ak"
      ],
      [
        "Ġfo",
        "ol"
      ],
      [
        "Ġsacrif",
        "ice"
      ],
      [
        "ĠEph",
        "raim"
      ],
      [
        "Ġut",
        "ter"
      ],
      [
        "Ġid",
        "ol"
      ],
      [
        "n",
        "es"
      ],
      [
        "Ġh",
        "orn"
      ],
      [
        "ir",
        "d"
      ],
      [
        "Ġre",
        "ward"
      ],
      [
        "Ġd",
        "ark"
      ],
      [
        "Ġg",
        "round"
      ],
      [
        "us",
        "ed"
      ],
      [
        "Ġshe",
        "ep"
      ],
      [
        "Ġpre",
        "p"
      ],
      [
        "Ġmesseng",
        "ers"
      ],
      [
        "Ġdisbelie",
        "ve"
      ],
      [
        "Ġjudg",
        "ment"
      ],
      [
        "Ġsec",
        "ond"
      ],
      [
        "Ġthr",
        "one"
      ],
      [
        "u",
        "ght"
      ],
      [
        "Ġc",
        "ried"
      ],
      [
        "Ġsp",
        "oil"
      ],
      [
        "our",
        "ney"
      ],
      [
        "Ġj",
        "ourney"
      ],
      [
        "Ġpass",
        "ed"
      ],
      [
        "Ġmount",
        "ains"
      ],
      [
        "ĠWhere",
        "fore"
      ],
      [
        "Ġrev",
        "ealed"
      ],
      [
        "f",
        "ter"
      ],
      [
        "Ġh",
        "id"
      ],
      [
        "Ġb",
        "ur"
      ],
      [
        "Ġe",
        "ld"
      ],
      [
        "ĠD",
        "ay"
      ],
      [
        "Ġway",
        "s"
      ],
      [
        "Ġbo",
        "ok"
      ],
      [
        "Ġtrans",
        "gress"
      ],
      [
        "Ġto",
        "ng"
      ],
      [
        "Ġn",
        "am"
      ],
      [
        "in",
        "ed"
      ],
      [
        "Ġc",
        "h"
      ],
      [
        "Ġreign",
        "ed"
      ],
      [
        "Ġnum",
        "ber"
      ],
      [
        "Ġs",
        "ing"
      ],
      [
        "Ġm",
        "ost"
      ],
      [
        "at",
        "es"
      ],
      [
        "Ġt",
        "im"
      ],
      [
        "Ġbless",
        "ed"
      ],
      [
        "ĠBen",
        "jam"
      ],
      [
        "a",
        "an"
      ],
      [
        "a",
        "ac"
      ],
      [
        "e",
        "y"
      ],
      [
        "ĠS",
        "cripture"
      ],
      [
        "Ġke",
        "pt"
      ],
      [
        "Ġdestroy",
        "ed"
      ],
      [
        "Ġmeet",
        "ing"
      ],
      [
        "o",
        "am"
      ],
      [
        "Ġf",
        "ore"
      ],
      [
        "Ġwh",
        "ether"
      ],
      [
        "ar",
        "ted"
      ],
      [
        "one",
        "y"
      ],
      [
        "Ġthir",
        "d"
      ],
      [
        "a",
        "id"
      ],
      [
        "m",
        "ed"
      ],
      [
        "Ġin",
        "st"
      ],
      [
        "Ġl",
        "am"
      ],
      [
        "Ġr",
        "am"
      ],
      [
        "Ġfamil",
        "ies"
      ],
      [
        "l",
        "ing"
      ],
      [
        "ha",
        "z"
      ],
      [
        "ĠM",
        "oab"
      ],
      [
        "Ġthy",
        "self"
      ],
      [
        "'",
        ";"
      ],
      [
        "Ġw",
        "ast"
      ],
      [
        "us",
        "h"
      ],
      [
        "Ġcommand",
        "ment"
      ],
      [
        "Ġbu",
        "ilt"
      ],
      [
        "Ġsle",
        "w"
      ],
      [
        "Be",
        "hold"
      ],
      [
        "Ġc",
        "amp"
      ],
      [
        "Ġto",
        "uch"
      ],
      [
        "Ġthan",
        "ks"
      ],
      [
        "Ġrem",
        "ain"
      ],
      [
        "Ġcha",
        "ri"
      ],
      [
        "i",
        "an"
      ],
      [
        "ĠH",
        "o"
      ],
      [
        "Ġwith",
        "in"
      ],
      [
        "ag",
        "es"
      ],
      [
        "Ġrece",
        "ive"
      ],
      [
        "Ġtwel",
        "ve"
      ],
      [
        "v",
        "ation"
      ],
      [
        "or",
        "row"
      ],
      [
        "ĠA",
        "d"
      ],
      [
        "Ġp",
        "ie"
      ],
      [
        "ha",
        "d"
      ],
      [
        "ur",
        "re"
      ],
      [
        "Ġa",
        "p"
      ],
      [
        "Ġb",
        "orn"
      ],
      [
        "Ġb",
        "ond"
      ],
      [
        "Ġb",
        "attle"
      ],
      [
        "Ġre",
        "d"
      ],
      [
        "ĠJ",
        "on"
      ],
      [
        "if",
        "ul"
      ],
      [
        "Ġpro",
        "f"
      ],
      [
        "ri",
        "end"
      ],
      [
        "Ġre",
        "b"
      ],
      [
        "ĠJ",
        "ord"
      ],
      [
        "Ġbro",
        "ken"
      ],
      [
        "Ġthir",
        "ty"
      ],
      [
        "ĠJord",
        "an"
      ],
      [
        "ea",
        "se"
      ],
      [
        "ent",
        "s"
      ],
      [
        "Ġwhat",
        "soever"
      ],
      [
        "Ġgra",
        "ce"
      ],
      [
        "Ġb",
        "ore"
      ],
      [
        "es",
        "h"
      ],
      [
        "Ġd",
        "ra"
      ],
      [
        "ĠN",
        "o"
      ],
      [
        "Ġdis",
        "ci"
      ],
      [
        "Ġmea",
        "l"
      ],
      [
        "Ġdep",
        "arted"
      ],
      [
        "b",
        "b"
      ],
      [
        "Ġs",
        "ign"
      ],
      [
        "Ġb",
        "ea"
      ],
      [
        "to",
        "n"
      ],
      [
        "Ġn",
        "ation"
      ],
      [
        "Ġlea",
        "ve"
      ],
      [
        "en",
        "ed"
      ],
      [
        "Ġha",
        "ving"
      ],
      [
        "ir",
        "c"
      ],
      [
        "Ġfa",
        "vour"
      ],
      [
        "Ġtem",
        "ple"
      ],
      [
        "Ġpun",
        "ish"
      ],
      [
        "m",
        "iah"
      ],
      [
        "et",
        "er"
      ],
      [
        "Ġli",
        "ving"
      ],
      [
        "Ġaff",
        "li"
      ],
      [
        "Ġsal",
        "vation"
      ],
      [
        "ĠBenjam",
        "in"
      ],
      [
        "Ġg",
        "r"
      ],
      [
        "Ġt",
        "ra"
      ],
      [
        "ĠG",
        "il"
      ],
      [
        "Ġab",
        "le"
      ],
      [
        "Ġus",
        "ed"
      ],
      [
        "Ġsto",
        "ne"
      ],
      [
        "Ġsto",
        "nes"
      ],
      [
        "Ġlif",
        "ted"
      ],
      [
        "Ġtri",
        "b"
      ],
      [
        "ci",
        "ous"
      ],
      [
        "ĠAr",
        "am"
      ],
      [
        "ĠSp",
        "irit"
      ],
      [
        "Ġcontin",
        "u"
      ],
      [
        "a",
        "ph"
      ],
      [
        "l",
        "f"
      ],
      [
        "n",
        "ow"
      ],
      [
        "in",
        "ess"
      ],
      [
        "ĠH",
        "am"
      ],
      [
        "ĠW",
        "hi"
      ],
      [
        "Ġserv",
        "ice"
      ],
      [
        "all",
        "ey"
      ],
      [
        "Ġbu",
        "ll"
      ],
      [
        "Ġbod",
        "y"
      ],
      [
        "a",
        "red"
      ],
      [
        "i",
        "ces"
      ],
      [
        "o",
        "ved"
      ],
      [
        "ĠD",
        "an"
      ],
      [
        "Ġsw",
        "e"
      ],
      [
        "Ġent",
        "er"
      ],
      [
        "Ġrece",
        "ived"
      ],
      [
        "Ġrej",
        "oice"
      ],
      [
        "Ġref",
        "u"
      ],
      [
        "Ġvessel",
        "s"
      ],
      [
        "b",
        "and"
      ],
      [
        "g",
        "ue"
      ],
      [
        "r",
        "or"
      ],
      [
        "u",
        "ary"
      ],
      [
        "Ġcomm",
        "it"
      ],
      [
        "Ġnor",
        "th"
      ],
      [
        "Ġbelie",
        "ved"
      ],
      [
        "Ġbelie",
        "vers"
      ],
      [
        "Ġgl",
        "ad"
      ],
      [
        "Ġinc",
        "re"
      ],
      [
        "Ġo",
        "x"
      ],
      [
        "Ġf",
        "at"
      ],
      [
        "ĠT",
        "o"
      ],
      [
        "Ġco",
        "ve"
      ],
      [
        "Ġdes",
        "ol"
      ],
      [
        "Ġansw",
        "er"
      ],
      [
        "ĠCan",
        "aan"
      ],
      [
        "Ġt",
        "each"
      ],
      [
        "ĠJ",
        "ere"
      ],
      [
        "Ġthou",
        "ght"
      ],
      [
        "us",
        "band"
      ],
      [
        "Ġv",
        "ine"
      ],
      [
        "ĠP",
        "aul"
      ],
      [
        "ac",
        "le"
      ],
      [
        "Ġbeg",
        "an"
      ],
      [
        "Ġf",
        "led"
      ],
      [
        "Ġm",
        "ar"
      ],
      [
        "Ġc",
        "attle"
      ],
      [
        "ĠS",
        "on"
      ],
      [
        "ĠHe",
        "z"
      ],
      [
        "Ġsu",
        "b"
      ],
      [
        "un",
        "to"
      ],
      [
        "Ġmu",
        "st"
      ],
      [
        "Ġpres",
        "ence"
      ],
      [
        "Ġcar",
        "ried"
      ],
      [
        "Ġa",
        "ro"
      ],
      [
        "Ġh",
        "usband"
      ],
      [
        "Ġcomp",
        "ass"
      ],
      [
        "Ġfif",
        "ty"
      ],
      [
        "Ġmak",
        "eth"
      ],
      [
        "Ġtab",
        "ern"
      ],
      [
        "Ġaro",
        "se"
      ],
      [
        "b",
        "orn"
      ],
      [
        "i",
        "eth"
      ],
      [
        "Ġf",
        "riend"
      ],
      [
        "Ġsp",
        "read"
      ],
      [
        "Ġfo",
        "od"
      ],
      [
        "Ġdec",
        "la"
      ],
      [
        "Ġunderstand",
        "ing"
      ],
      [
        "u",
        "c"
      ],
      [
        "Ġsu",
        "pp"
      ],
      [
        "Ġne",
        "ver"
      ],
      [
        "ĠZ",
        "ion"
      ],
      [
        "Ġdes",
        "ire"
      ],
      [
        "Ġang",
        "els"
      ],
      [
        "Wh",
        "at"
      ],
      [
        "irc",
        "um"
      ],
      [
        "e",
        "em"
      ],
      [
        "i",
        "ous"
      ],
      [
        "Ġf",
        "ul"
      ],
      [
        "Ġf",
        "illed"
      ],
      [
        "Ġwho",
        "soever"
      ],
      [
        "ĠO",
        "f"
      ],
      [
        "ĠN",
        "eb"
      ],
      [
        "Ġear",
        "s"
      ],
      [
        "Ġdark",
        "ness"
      ],
      [
        "Ġeld",
        "ers"
      ],
      [
        "s",
        "en"
      ],
      [
        "Ġm",
        "ind"
      ],
      [
        "Ġp",
        "ill"
      ],
      [
        "Ġwi",
        "ves"
      ],
      [
        "ĠTh",
        "ine"
      ],
      [
        "ow",
        "s"
      ],
      [
        "Ġk",
        "ill"
      ],
      [
        "ĠJ",
        "oab"
      ],
      [
        "Ġbeast",
        "s"
      ],
      [
        "Ġbull",
        "ock"
      ],
      [
        "r",
        "ing"
      ],
      [
        "t",
        "en"
      ],
      [
        "Ġo",
        "pp"
      ],
      [
        "re",
        "r"
      ],
      [
        "ea",
        "ns"
      ],
      [
        "Ġoff",
        "ered"
      ],
      [
        "Ġwa",
        "it"
      ],
      [
        "Ġcoun",
        "sel"
      ],
      [
        "asse",
        "h"
      ],
      [
        "ĠJere",
        "miah"
      ],
      [
        "p",
        "les"
      ],
      [
        "Ġ",
        "each"
      ],
      [
        "el",
        "y"
      ],
      [
        "Ġst",
        "ra"
      ],
      [
        "ĠO",
        "n"
      ],
      [
        "Ġcl",
        "ear"
      ],
      [
        "Ġord",
        "in"
      ],
      [
        "ircum",
        "c"
      ],
      [
        "t",
        "een"
      ],
      [
        "Ġfa",
        "st"
      ],
      [
        "Ġdes",
        "p"
      ],
      [
        "ĠSam",
        "uel"
      ],
      [
        "ĠMan",
        "asseh"
      ],
      [
        "v",
        "ent"
      ],
      [
        "Ġ",
        "esc"
      ],
      [
        "Ġh",
        "op"
      ],
      [
        "Ġv",
        "alley"
      ],
      [
        "Ġthrough",
        "out"
      ],
      [
        "ĠHo",
        "ly"
      ],
      [
        "Ġesc",
        "ap"
      ],
      [
        "Ġg",
        "ather"
      ],
      [
        "Ġbec",
        "ame"
      ],
      [
        "Ġproph",
        "es"
      ],
      [
        "Ġcho",
        "sen"
      ],
      [
        "Ġ",
        "V"
      ],
      [
        "Ġg",
        "ri"
      ],
      [
        "ce",
        "ed"
      ],
      [
        "Ġne",
        "ed"
      ],
      [
        "Ġstr",
        "ang"
      ],
      [
        "Ġmount",
        "ain"
      ],
      [
        "Ġtabern",
        "acle"
      ],
      [
        "is",
        "on"
      ],
      [
        "Ġd",
        "ri"
      ],
      [
        "Ġne",
        "w"
      ],
      [
        "Ġpray",
        "er"
      ],
      [
        "Ġhead",
        "s"
      ],
      [
        "to",
        "r"
      ],
      [
        "Ġsa",
        "ke"
      ],
      [
        "ĠIs",
        "aac"
      ],
      [
        "Ġst",
        "ead"
      ],
      [
        "ĠN",
        "ay"
      ],
      [
        "Ġthen",
        "ce"
      ],
      [
        "Ġtim",
        "es"
      ],
      [
        "a",
        "se"
      ],
      [
        "m",
        "an"
      ],
      [
        "er",
        "ve"
      ],
      [
        "Ġc",
        "r"
      ],
      [
        "Ġfa",
        "lse"
      ],
      [
        "Ġne",
        "igh"
      ],
      [
        "Ġgive",
        "th"
      ],
      [
        "Ġsanct",
        "uary"
      ],
      [
        "Ġc",
        "orn"
      ],
      [
        "ĠAs",
        "sy"
      ],
      [
        "Ġremem",
        "ber"
      ],
      [
        "ĠAssy",
        "ri"
      ],
      [
        "b",
        "a"
      ],
      [
        "v",
        "ail"
      ],
      [
        "Ġf",
        "east"
      ],
      [
        "Ġp",
        "ers"
      ],
      [
        "Ġport",
        "ion"
      ],
      [
        "Ġmin",
        "ister"
      ],
      [
        "o",
        "e"
      ],
      [
        "Ġs",
        "ister"
      ],
      [
        "Ġf",
        "ight"
      ],
      [
        "Ġf",
        "ine"
      ],
      [
        "ĠA",
        "l"
      ],
      [
        "il",
        "ed"
      ],
      [
        "Ġab",
        "omin"
      ],
      [
        "Ġcl",
        "oud"
      ],
      [
        "Ġfam",
        "ily"
      ],
      [
        "ĠSam",
        "ar"
      ],
      [
        "Ġdisci",
        "ples"
      ],
      [
        "b",
        "y"
      ],
      [
        "b",
        "our"
      ],
      [
        "p",
        "er"
      ],
      [
        "u",
        "lt"
      ],
      [
        "Ġc",
        "or"
      ],
      [
        "ĠH",
        "ere"
      ],
      [
        "Ġsou",
        "ght"
      ],
      [
        "Ġneigh",
        "bour"
      ],
      [
        "Ġha",
        "lf"
      ],
      [
        "Ġt",
        "rou"
      ],
      [
        "ĠO",
        "ne"
      ],
      [
        "um",
        "b"
      ],
      [
        "Ġrep",
        "ent"
      ],
      [
        "Ġhon",
        "our"
      ],
      [
        "r",
        "ance"
      ],
      [
        "ra",
        "id"
      ],
      [
        "ĠJ",
        "o"
      ],
      [
        "Ġdo",
        "eth"
      ],
      [
        "Ġshe",
        "k"
      ],
      [
        "Ġpre",
        "ach"
      ],
      [
        "Ġopen",
        "ed"
      ],
      [
        "Ġtong",
        "ue"
      ],
      [
        "u",
        "p"
      ],
      [
        "Ġd",
        "ou"
      ],
      [
        "Ġsa",
        "bb"
      ],
      [
        "em",
        "ent"
      ],
      [
        "Ġro",
        "se"
      ],
      [
        "Ġgener",
        "ations"
      ],
      [
        "ĠBa",
        "al"
      ],
      [
        "Ġsabb",
        "ath"
      ],
      [
        "Ġm",
        "aster"
      ],
      [
        "ea",
        "red"
      ],
      [
        "Ġfor",
        "s"
      ],
      [
        "Ġfor",
        "ty"
      ],
      [
        "Ġas",
        "s"
      ],
      [
        "if",
        "t"
      ],
      [
        "Ġca",
        "used"
      ],
      [
        "Ġaf",
        "raid"
      ],
      [
        "pp",
        "ed"
      ],
      [
        "Ġbr",
        "ass"
      ],
      [
        "fe",
        "ct"
      ],
      [
        "oin",
        "t"
      ],
      [
        "Ġsl",
        "ay"
      ],
      [
        "Ġcomp",
        "an"
      ],
      [
        "Ġcour",
        "t"
      ],
      [
        "ĠHez",
        "ekiah"
      ],
      [
        "Ġd",
        "uty"
      ],
      [
        "Ġfor",
        "b"
      ],
      [
        "Ġsa",
        "ved"
      ],
      [
        "Ġas",
        "se"
      ],
      [
        "ak",
        "ed"
      ],
      [
        "G",
        "o"
      ],
      [
        "n",
        "ers"
      ],
      [
        "s",
        "ha"
      ],
      [
        "u",
        "res"
      ],
      [
        "Ġin",
        "ter"
      ],
      [
        "Ġre",
        "l"
      ],
      [
        "Ġwas",
        "h"
      ],
      [
        "Ġco",
        "ver"
      ],
      [
        "Ġrep",
        "ro"
      ],
      [
        "Ġask",
        "ed"
      ],
      [
        "b",
        "ed"
      ],
      [
        "m",
        "er"
      ],
      [
        "at",
        "s"
      ],
      [
        "id",
        "ings"
      ],
      [
        "ĠTh",
        "ose"
      ],
      [
        "ĠG",
        "o"
      ],
      [
        "ĠHe",
        "b"
      ],
      [
        "Ġbel",
        "ong"
      ],
      [
        "all",
        "y"
      ],
      [
        "Ġsea",
        "s"
      ],
      [
        "Ġprin",
        "ce"
      ],
      [
        "Ġdisbelie",
        "vers"
      ],
      [
        "Ġnum",
        "bered"
      ],
      [
        "Ġhop",
        "e"
      ],
      [
        "Ġh",
        "ur"
      ],
      [
        "is",
        "ha"
      ],
      [
        "hi",
        "nd"
      ],
      [
        "Ġcapt",
        "ain"
      ],
      [
        "Ġtre",
        "as"
      ],
      [
        "ĠSamar",
        "ia"
      ],
      [
        "a",
        "fter"
      ],
      [
        "Ġbe",
        "hind"
      ],
      [
        "iv",
        "ity"
      ],
      [
        "c",
        "c"
      ],
      [
        "al",
        "s"
      ],
      [
        "Ġab",
        "und"
      ],
      [
        "ĠU",
        "n"
      ],
      [
        "Ġad",
        "vers"
      ],
      [
        "Ġlook",
        "ed"
      ],
      [
        "w",
        "ay"
      ],
      [
        "y",
        "ing"
      ],
      [
        "Ġa",
        "st"
      ],
      [
        "Ġf",
        "ur"
      ],
      [
        "Ġt",
        "ree"
      ],
      [
        "Ġst",
        "ill"
      ],
      [
        "Ġsp",
        "ake"
      ],
      [
        "ĠO",
        "r"
      ],
      [
        "Ġde",
        "ed"
      ],
      [
        "Ġra",
        "ised"
      ],
      [
        "ĠY",
        "et"
      ],
      [
        "Ġru",
        "l"
      ],
      [
        "Ġful",
        "f"
      ],
      [
        "ĠAssyri",
        "a"
      ],
      [
        "Ġl",
        "ab"
      ],
      [
        "se",
        "c"
      ],
      [
        "Ġt",
        "idings"
      ],
      [
        "al",
        "a"
      ],
      [
        "ĠP",
        "eter"
      ],
      [
        "Ġtest",
        "imon"
      ],
      [
        "Ġ",
        "er"
      ],
      [
        "le",
        "th"
      ],
      [
        "Ġgo",
        "eth"
      ],
      [
        "Ġde",
        "f"
      ],
      [
        "Ġde",
        "ce"
      ],
      [
        "Ġde",
        "vil"
      ],
      [
        "Ġafter",
        "ward"
      ],
      [
        "Ġgu",
        "ard"
      ],
      [
        "Ġdre",
        "am"
      ],
      [
        "ĠJon",
        "athan"
      ],
      [
        "w",
        "are"
      ],
      [
        "en",
        "se"
      ],
      [
        "do",
        "ers"
      ],
      [
        "Ġbur",
        "den"
      ],
      [
        "Ġpie",
        "ces"
      ],
      [
        "u",
        "ri"
      ],
      [
        "Ġsha",
        "me"
      ],
      [
        "ight",
        "y"
      ],
      [
        "ph",
        "er"
      ],
      [
        "Ġac",
        "cept"
      ],
      [
        "Ġsou",
        "th"
      ],
      [
        "Ġcapt",
        "ivity"
      ],
      [
        "Ġch",
        "ur"
      ],
      [
        "L",
        "et"
      ],
      [
        "m",
        "ost"
      ],
      [
        "Ġp",
        "ure"
      ],
      [
        "an",
        "ces"
      ],
      [
        "Ġst",
        "re"
      ],
      [
        "ĠAm",
        "mon"
      ],
      [
        "Ġswe",
        "et"
      ],
      [
        "Ġast",
        "ray"
      ],
      [
        "p",
        "l"
      ],
      [
        "os",
        "ed"
      ],
      [
        "la",
        "st"
      ],
      [
        "Ġwalk",
        "ed"
      ],
      [
        "ĠWhi",
        "ch"
      ],
      [
        "g",
        "iving"
      ],
      [
        "Ġf",
        "le"
      ],
      [
        "Ġwhi",
        "ther"
      ],
      [
        "Ġdis",
        "c"
      ],
      [
        "ham",
        "ed"
      ],
      [
        "ic",
        "ation"
      ],
      [
        "Ġr",
        "od"
      ],
      [
        "Ġmea",
        "sure"
      ],
      [
        "Ġhearken",
        "ed"
      ],
      [
        "Ġchari",
        "ots"
      ],
      [
        "s",
        "h"
      ],
      [
        "Ġs",
        "hip"
      ],
      [
        "ĠA",
        "h"
      ],
      [
        "Ġp",
        "ain"
      ],
      [
        "Ġn",
        "igh"
      ],
      [
        "Ġas",
        "hamed"
      ],
      [
        "Ġv",
        "al"
      ],
      [
        "Ġsou",
        "nd"
      ],
      [
        "be",
        "y"
      ],
      [
        "Ġsm",
        "ite"
      ],
      [
        "Ġro",
        "ck"
      ],
      [
        "Ġm",
        "oney"
      ],
      [
        "Ġd",
        "ist"
      ],
      [
        "le",
        "ch"
      ],
      [
        "Ġseven",
        "th"
      ],
      [
        "Ġenem",
        "y"
      ],
      [
        "Ġcur",
        "se"
      ],
      [
        "Ġopp",
        "ress"
      ],
      [
        "a",
        "el"
      ],
      [
        "c",
        "ed"
      ],
      [
        "ay",
        "ed"
      ],
      [
        "el",
        "ah"
      ],
      [
        "al",
        "m"
      ],
      [
        "ru",
        "ction"
      ],
      [
        "Ġab",
        "ide"
      ],
      [
        "Ġwhere",
        "of"
      ],
      [
        "Ġtru",
        "e"
      ],
      [
        "Ġbeg",
        "in"
      ],
      [
        "Ġhar",
        "l"
      ],
      [
        "Ġdep",
        "art"
      ],
      [
        "o",
        "c"
      ],
      [
        "o",
        "ld"
      ],
      [
        "t",
        "eth"
      ],
      [
        "Ġhe",
        "ed"
      ],
      [
        "Ġre",
        "qu"
      ],
      [
        "ĠE",
        "dom"
      ],
      [
        "Ġv",
        "i"
      ],
      [
        "Ġv",
        "ain"
      ],
      [
        "ĠAb",
        "sal"
      ],
      [
        "Ġapp",
        "ear"
      ],
      [
        "Ġden",
        "y"
      ],
      [
        "Ġcons",
        "um"
      ],
      [
        "ĠAbsal",
        "om"
      ],
      [
        "i",
        "er"
      ],
      [
        "t",
        "e"
      ],
      [
        "Ġc",
        "ham"
      ],
      [
        "Ġre",
        "ach"
      ],
      [
        "Ġup",
        "right"
      ],
      [
        "Ġcom",
        "ing"
      ],
      [
        "Ġse",
        "p"
      ],
      [
        "ĠWh",
        "y"
      ],
      [
        "Ġsin",
        "ned"
      ],
      [
        "cri",
        "be"
      ],
      [
        "Ġsoul",
        "s"
      ],
      [
        "Ġwicked",
        "ness"
      ],
      [
        "Ġcount",
        "ry"
      ],
      [
        "Ġhor",
        "ses"
      ],
      [
        "ee",
        "ch"
      ],
      [
        "Ġrefu",
        "ge"
      ],
      [
        "F",
        "or"
      ],
      [
        "r",
        "om"
      ],
      [
        "r",
        "ate"
      ],
      [
        "Ġwh",
        "y"
      ],
      [
        "Ġsu",
        "ff"
      ],
      [
        "Ġli",
        "ps"
      ],
      [
        "Ġdel",
        "ight"
      ],
      [
        "Ġper",
        "ish"
      ],
      [
        "Ġhor",
        "se"
      ],
      [
        "Ġasse",
        "mb"
      ],
      [
        "c",
        "ause"
      ],
      [
        "Ġa",
        "ct"
      ],
      [
        "Ġs",
        "la"
      ],
      [
        "Ġw",
        "ro"
      ],
      [
        "Ġd",
        "ust"
      ],
      [
        "Ġp",
        "ath"
      ],
      [
        "Ġn",
        "aught"
      ],
      [
        "ha",
        "th"
      ],
      [
        "Ġg",
        "ates"
      ],
      [
        "ĠM",
        "erc"
      ],
      [
        "ore",
        "over"
      ],
      [
        "Ġshe",
        "w"
      ],
      [
        "Ġbl",
        "ind"
      ],
      [
        "Ġen",
        "c"
      ],
      [
        "Ġtrib",
        "es"
      ],
      [
        "N",
        "ow"
      ],
      [
        "Ġb",
        "ound"
      ],
      [
        "ut",
        "es"
      ],
      [
        "ar",
        "m"
      ],
      [
        "ard",
        "s"
      ],
      [
        "ĠJer",
        "ob"
      ],
      [
        "Ġfaith",
        "ful"
      ],
      [
        "Ġnam",
        "es"
      ],
      [
        "urre",
        "ction"
      ],
      [
        "ĠJerob",
        "oam"
      ],
      [
        "d",
        "ow"
      ],
      [
        "Ġm",
        "atter"
      ],
      [
        "ĠA",
        "n"
      ],
      [
        "ea",
        "th"
      ],
      [
        "ha",
        "r"
      ],
      [
        "ph",
        "at"
      ],
      [
        "ĠSha",
        "ll"
      ],
      [
        "Ġstat",
        "utes"
      ],
      [
        "Ġidol",
        "s"
      ],
      [
        "ĠGil",
        "ead"
      ],
      [
        "l",
        "s"
      ],
      [
        "s",
        "hi"
      ],
      [
        "le",
        "m"
      ],
      [
        "Ġe",
        "ight"
      ],
      [
        "Ġwat",
        "ch"
      ],
      [
        "Ġcommand",
        "ments"
      ],
      [
        "Ġcapt",
        "ains"
      ],
      [
        "Ġincre",
        "ase"
      ],
      [
        "Ġdesol",
        "ate"
      ],
      [
        "ĠHere",
        "after"
      ],
      [
        "Ġharl",
        "ot"
      ],
      [
        "ter",
        "s"
      ],
      [
        "Ġal",
        "one"
      ],
      [
        "Ġsu",
        "f"
      ],
      [
        "Ġri",
        "ch"
      ],
      [
        "Ġfo",
        "ot"
      ],
      [
        "ĠBe",
        "cause"
      ],
      [
        "Ġpl",
        "ain"
      ],
      [
        "ĠJeho",
        "i"
      ],
      [
        "Ġgar",
        "ments"
      ],
      [
        "Ġw",
        "ard"
      ],
      [
        "Ġm",
        "is"
      ],
      [
        "Ġm",
        "ag"
      ],
      [
        "ho",
        "st"
      ],
      [
        "Ġsh",
        "ut"
      ],
      [
        "la",
        "im"
      ],
      [
        "la",
        "ce"
      ],
      [
        "Ġfe",
        "ed"
      ],
      [
        "Ġim",
        "p"
      ],
      [
        "eal",
        "th"
      ],
      [
        "Ġs",
        "it"
      ],
      [
        "re",
        "w"
      ],
      [
        "Ġl",
        "in"
      ],
      [
        "ĠS",
        "e"
      ],
      [
        "our",
        "n"
      ],
      [
        "ĠF",
        "ire"
      ],
      [
        "Ġri",
        "vers"
      ],
      [
        "Ġex",
        "al"
      ],
      [
        "Th",
        "us"
      ],
      [
        "Ġlove",
        "th"
      ],
      [
        "Ġsi",
        "ck"
      ],
      [
        "Ġchar",
        "ge"
      ],
      [
        "Ġestabl",
        "ished"
      ],
      [
        "Ġprep",
        "ared"
      ],
      [
        "i",
        "ch"
      ],
      [
        "i",
        "ent"
      ],
      [
        "w",
        "ise"
      ],
      [
        "Ġw",
        "est"
      ],
      [
        "ll",
        "y"
      ],
      [
        "Ġg",
        "ird"
      ],
      [
        "Ġwho",
        "so"
      ],
      [
        "Ġbre",
        "ast"
      ],
      [
        "Ġbu",
        "ried"
      ],
      [
        "Ġra",
        "in"
      ],
      [
        "Ġfollow",
        "ed"
      ],
      [
        "sal",
        "m"
      ],
      [
        "Ġreb",
        "ell"
      ],
      [
        "Ġpill",
        "ars"
      ],
      [
        "last",
        "ing"
      ],
      [
        "f",
        "ort"
      ],
      [
        "Ġb",
        "on"
      ],
      [
        "Ġp",
        "ast"
      ],
      [
        "Ġto",
        "r"
      ],
      [
        "Ġl",
        "ion"
      ],
      [
        "Ġl",
        "ead"
      ],
      [
        "id",
        "ed"
      ],
      [
        "el",
        "ess"
      ],
      [
        "il",
        "es"
      ],
      [
        "Ġfa",
        "ces"
      ],
      [
        "Ġv",
        "an"
      ],
      [
        "Ġpro",
        "c"
      ],
      [
        "Ġri",
        "ver"
      ],
      [
        "Ġpla",
        "gue"
      ],
      [
        "Ġr",
        "ise"
      ],
      [
        "Ġfam",
        "ine"
      ],
      [
        "Ġru",
        "n"
      ],
      [
        "Ġdre",
        "w"
      ],
      [
        "Ġred",
        "eem"
      ],
      [
        "Ġdecla",
        "re"
      ],
      [
        "Ġhur",
        "t"
      ],
      [
        "ĠMerc",
        "iful"
      ],
      [
        "Ġbon",
        "es"
      ],
      [
        "z",
        "er"
      ],
      [
        "Ġc",
        "her"
      ],
      [
        "Ġto",
        "wn"
      ],
      [
        "ĠT",
        "ru"
      ],
      [
        "Ġt",
        "ar"
      ],
      [
        "Ġan",
        "ointed"
      ],
      [
        "Ġfa",
        "ir"
      ],
      [
        "ĠIs",
        "h"
      ],
      [
        "Ġgreat",
        "er"
      ],
      [
        "Ġco",
        "nd"
      ],
      [
        "Ġox",
        "en"
      ],
      [
        "Ġfle",
        "e"
      ],
      [
        "or",
        "s"
      ],
      [
        "Ġsee",
        "ing"
      ],
      [
        "un",
        "g"
      ],
      [
        "Ġex",
        "ceed"
      ],
      [
        "ĠY",
        "ea"
      ],
      [
        "Ġlin",
        "en"
      ],
      [
        "d",
        "s"
      ],
      [
        "g",
        "s"
      ],
      [
        "Ġw",
        "rought"
      ],
      [
        "Ġg",
        "arden"
      ],
      [
        "Ġon",
        "es"
      ],
      [
        "Ġst",
        "ret"
      ],
      [
        "Ġever",
        "lasting"
      ],
      [
        "um",
        "ble"
      ],
      [
        "Ġdis",
        "p"
      ],
      [
        "ĠR",
        "em"
      ],
      [
        "Ġforg",
        "ive"
      ],
      [
        "Ġpossess",
        "ion"
      ],
      [
        "Ġprom",
        "ise"
      ],
      [
        "Ġread",
        "y"
      ],
      [
        "Ġaffli",
        "ct"
      ],
      [
        "ou",
        "gh"
      ],
      [
        "ĠA",
        "hab"
      ],
      [
        "Ġn",
        "aked"
      ],
      [
        "il",
        "ty"
      ],
      [
        "Ġman",
        "if"
      ],
      [
        "Ġpr",
        "ison"
      ],
      [
        "Ġent",
        "ered"
      ],
      [
        "Ġforg",
        "iven"
      ],
      [
        "Ġguid",
        "ance"
      ],
      [
        "Ġcher",
        "ub"
      ],
      [
        "Ġ",
        "ir"
      ],
      [
        "Ġo",
        "bs"
      ],
      [
        "Ġw",
        "ealth"
      ],
      [
        "Ġb",
        "ed"
      ],
      [
        "ĠG",
        "arden"
      ],
      [
        "Ġbel",
        "oved"
      ],
      [
        "ĠK",
        "n"
      ],
      [
        "Ġother",
        "s"
      ],
      [
        "Ġlive",
        "th"
      ],
      [
        "Ġsle",
        "ep"
      ],
      [
        "Ġjust",
        "ice"
      ],
      [
        "ĠNo",
        "ah"
      ],
      [
        "Ġcove",
        "red"
      ],
      [
        "ĠUn",
        "to"
      ],
      [
        "Ġir",
        "on"
      ],
      [
        "Ġo",
        "bey"
      ],
      [
        "Ġh",
        "ide"
      ],
      [
        "ea",
        "rer"
      ],
      [
        "it",
        "ed"
      ],
      [
        "Ġl",
        "ed"
      ],
      [
        "ĠG",
        "ent"
      ],
      [
        "Ġbring",
        "eth"
      ],
      [
        "Ġex",
        "p"
      ],
      [
        "Ġgu",
        "ilty"
      ],
      [
        "Ġfall",
        "en"
      ],
      [
        "ĠKn",
        "ower"
      ],
      [
        "r",
        "ise"
      ],
      [
        "w",
        "or"
      ],
      [
        "y",
        "ond"
      ],
      [
        "z",
        "zar"
      ],
      [
        "Ġw",
        "ood"
      ],
      [
        "Ġhe",
        "ll"
      ],
      [
        "ut",
        "ed"
      ],
      [
        "ĠM",
        "oreover"
      ],
      [
        "ĠB",
        "y"
      ],
      [
        "Ġpro",
        "sp"
      ],
      [
        "Ġsm",
        "all"
      ],
      [
        "uc",
        "had"
      ],
      [
        "a",
        "ir"
      ],
      [
        "n",
        "ant"
      ],
      [
        "v",
        "est"
      ],
      [
        "Ġ",
        "ve"
      ],
      [
        "Ġw",
        "o"
      ],
      [
        "or",
        "ah"
      ],
      [
        "ing",
        "ly"
      ],
      [
        "Ġp",
        "ay"
      ],
      [
        "Ġbe",
        "yond"
      ],
      [
        "Ġg",
        "row"
      ],
      [
        "ĠM",
        "ic"
      ],
      [
        "Ġgo",
        "sp"
      ],
      [
        "Ġmy",
        "self"
      ],
      [
        "ru",
        "pt"
      ],
      [
        "ĠP",
        "salm"
      ],
      [
        "Ġwor",
        "shi"
      ],
      [
        "Ġpro",
        "st"
      ],
      [
        "ĠC",
        "ha"
      ],
      [
        "Ġlo",
        "ved"
      ],
      [
        "ure",
        "ly"
      ],
      [
        "ĠEgypt",
        "ians"
      ],
      [
        "Ġfl",
        "ow"
      ],
      [
        "Ġim",
        "age"
      ],
      [
        "Ġsec",
        "ret"
      ],
      [
        "Ġord",
        "er"
      ],
      [
        "ĠGent",
        "iles"
      ],
      [
        "Ġgosp",
        "el"
      ],
      [
        "Ġa",
        "ton"
      ],
      [
        "Ġs",
        "ho"
      ],
      [
        "Ġs",
        "itt"
      ],
      [
        "Ġh",
        "ate"
      ],
      [
        "Ġb",
        "as"
      ],
      [
        "Ġha",
        "ir"
      ],
      [
        "Ġas",
        "ide"
      ],
      [
        "Ġwe",
        "ep"
      ],
      [
        "Ġrem",
        "nant"
      ],
      [
        "Ġend",
        "ure"
      ],
      [
        "Ġpart",
        "s"
      ],
      [
        "Ġcar",
        "ry"
      ],
      [
        "ĠNeb",
        "uchad"
      ],
      [
        "ĠCha",
        "ld"
      ],
      [
        "Ġaton",
        "ement"
      ],
      [
        "re",
        "es"
      ],
      [
        "ĠH",
        "ave"
      ],
      [
        "ĠB",
        "ar"
      ],
      [
        "Ġshe",
        "pher"
      ],
      [
        "Ġsm",
        "oke"
      ],
      [
        "ull",
        "y"
      ],
      [
        "su",
        "red"
      ],
      [
        "ĠEs",
        "au"
      ],
      [
        "Ġestabl",
        "ish"
      ],
      [
        "Ġutter",
        "ly"
      ],
      [
        "Ġvine",
        "y"
      ],
      [
        "Ġordin",
        "ances"
      ],
      [
        "Ġforb",
        "id"
      ],
      [
        "W",
        "e"
      ],
      [
        "Ġa",
        "ught"
      ],
      [
        "Ġs",
        "ore"
      ],
      [
        "Ġc",
        "am"
      ],
      [
        "ent",
        "ion"
      ],
      [
        "Ġre",
        "g"
      ],
      [
        "ĠJ",
        "oh"
      ],
      [
        "ĠG",
        "ad"
      ],
      [
        "ho",
        "b"
      ],
      [
        "Ġal",
        "ive"
      ],
      [
        "Ġri",
        "ches"
      ],
      [
        "Ġeat",
        "en"
      ],
      [
        "eng",
        "th"
      ],
      [
        "Ġbread",
        "th"
      ],
      [
        "Wh",
        "ere"
      ],
      [
        "Ġpur",
        "p"
      ],
      [
        "Ġgener",
        "ation"
      ],
      [
        "Ġdra",
        "w"
      ],
      [
        "Ġcommit",
        "ted"
      ],
      [
        "Ġshek",
        "els"
      ],
      [
        "Ġfulf",
        "illed"
      ],
      [
        "Ġsuf",
        "fer"
      ],
      [
        "ĠJoh",
        "n"
      ],
      [
        "l",
        "am"
      ],
      [
        "r",
        "am"
      ],
      [
        "Ġh",
        "ome"
      ],
      [
        "Ġc",
        "al"
      ],
      [
        "ha",
        "h"
      ],
      [
        "Ġl",
        "ength"
      ],
      [
        "Ġg",
        "et"
      ],
      [
        "Ġsa",
        "in"
      ],
      [
        "od",
        "e"
      ],
      [
        "ri",
        "es"
      ],
      [
        "ĠS",
        "uch"
      ],
      [
        "Ġgo",
        "ing"
      ],
      [
        "ĠThe",
        "ir"
      ],
      [
        "Ġso",
        "j"
      ],
      [
        "ak",
        "en"
      ],
      [
        "Th",
        "ou"
      ],
      [
        "Ġhorn",
        "s"
      ],
      [
        "Ġlab",
        "our"
      ],
      [
        "b",
        "it"
      ],
      [
        "z",
        "z"
      ],
      [
        "Ġc",
        "ease"
      ],
      [
        "ĠT",
        "ake"
      ],
      [
        "ĠE",
        "ven"
      ],
      [
        "ĠN",
        "e"
      ],
      [
        "av",
        "es"
      ],
      [
        "ime",
        "lech"
      ],
      [
        "ub",
        "en"
      ],
      [
        "Ġper",
        "fect"
      ],
      [
        "Ġpl",
        "ant"
      ],
      [
        "Ġqu",
        "ick"
      ],
      [
        "ĠRe",
        "uben"
      ],
      [
        "Ġarm",
        "y"
      ],
      [
        "Ġpunish",
        "ment"
      ],
      [
        "Ġtestimon",
        "y"
      ],
      [
        "Ġbegin",
        "ning"
      ],
      [
        "Ġmanif",
        "est"
      ],
      [
        "h",
        "or"
      ],
      [
        "Ġs",
        "n"
      ],
      [
        "ch",
        "em"
      ],
      [
        "as",
        "on"
      ],
      [
        "Ġv",
        "is"
      ],
      [
        "Ġhouse",
        "hold"
      ],
      [
        "Ġlif",
        "t"
      ],
      [
        "Th",
        "is"
      ],
      [
        "Ġmult",
        "ip"
      ],
      [
        "Ġcloth",
        "es"
      ],
      [
        "i",
        "ath"
      ],
      [
        "n",
        "ce"
      ],
      [
        "Ġth",
        "ink"
      ],
      [
        "Ġp",
        "oured"
      ],
      [
        "Ġwh",
        "e"
      ],
      [
        "Ġcom",
        "fort"
      ],
      [
        "Ġab",
        "ode"
      ],
      [
        "Ġr",
        "an"
      ],
      [
        "ĠJeho",
        "sha"
      ],
      [
        "Ġcontinu",
        "ally"
      ],
      [
        "ĠJehosha",
        "phat"
      ],
      [
        "i",
        "ence"
      ],
      [
        "er",
        "ily"
      ],
      [
        "Ġf",
        "ree"
      ],
      [
        "Ġc",
        "ircumc"
      ],
      [
        "ĠA",
        "hi"
      ],
      [
        "Ġp",
        "at"
      ],
      [
        "Ġto",
        "p"
      ],
      [
        "Ġl",
        "ow"
      ],
      [
        "Ġt",
        "able"
      ],
      [
        "le",
        "t"
      ],
      [
        "ce",
        "nd"
      ],
      [
        "ĠE",
        "n"
      ],
      [
        "ĠE",
        "lea"
      ],
      [
        "ck",
        "on"
      ],
      [
        "Ġv",
        "ision"
      ],
      [
        "Ġso",
        "ld"
      ],
      [
        "ic",
        "ed"
      ],
      [
        "ĠZ",
        "eb"
      ],
      [
        "ĠU",
        "s"
      ],
      [
        "Ġtrou",
        "ble"
      ],
      [
        "Ġdou",
        "b"
      ],
      [
        "Ġsain",
        "ts"
      ],
      [
        "g",
        "o"
      ],
      [
        "Ġth",
        "ither"
      ],
      [
        "Ġc",
        "re"
      ],
      [
        "ay",
        "ing"
      ],
      [
        "Ġfor",
        "t"
      ],
      [
        "ĠG",
        "host"
      ],
      [
        "Ġey",
        "e"
      ],
      [
        "less",
        "ed"
      ],
      [
        "Ġden",
        "ied"
      ],
      [
        "Ġpit",
        "ched"
      ],
      [
        "Ġjourney",
        "ed"
      ],
      [
        "Ġap",
        "ost"
      ],
      [
        "ĠDan",
        "iel"
      ],
      [
        "r",
        "an"
      ],
      [
        "Ġ",
        "ed"
      ],
      [
        "th",
        "y"
      ],
      [
        "Ġw",
        "ear"
      ],
      [
        "Ġh",
        "our"
      ],
      [
        "re",
        "esc"
      ],
      [
        "Ġb",
        "ar"
      ],
      [
        "Ġm",
        "ur"
      ],
      [
        "ĠM",
        "a"
      ],
      [
        "ĠM",
        "id"
      ],
      [
        "ru",
        "n"
      ],
      [
        "Ġknow",
        "est"
      ],
      [
        "Ġde",
        "ep"
      ],
      [
        "Ġbr",
        "an"
      ],
      [
        "Ġoff",
        "ic"
      ],
      [
        "Ġremem",
        "b"
      ],
      [
        "Ġwast",
        "e"
      ],
      [
        "Ġescap",
        "e"
      ],
      [
        "Ġcr",
        "own"
      ],
      [
        "Ġcor",
        "rupt"
      ],
      [
        "Ġinter",
        "p"
      ],
      [
        "reesc",
        "ore"
      ],
      [
        "I",
        "t"
      ],
      [
        "i",
        "ble"
      ],
      [
        "p",
        "lace"
      ],
      [
        "u",
        "es"
      ],
      [
        "Ġth",
        "reescore"
      ],
      [
        "ĠA",
        "haz"
      ],
      [
        "ĠA",
        "ware"
      ],
      [
        "Ġl",
        "ot"
      ],
      [
        "Ġse",
        "em"
      ],
      [
        "Ġwe",
        "ight"
      ],
      [
        "ĠD",
        "o"
      ],
      [
        "Ġde",
        "vour"
      ],
      [
        "ig",
        "ion"
      ],
      [
        "ĠAs",
        "her"
      ],
      [
        "Ġfour",
        "th"
      ],
      [
        "Ġdeed",
        "s"
      ],
      [
        "ĠMid",
        "ian"
      ],
      [
        "ea",
        "h"
      ],
      [
        "Ġha",
        "bit"
      ],
      [
        "Ġthere",
        "on"
      ],
      [
        "Ġsw",
        "ear"
      ],
      [
        "Ġgra",
        "cious"
      ],
      [
        "ĠSh",
        "em"
      ],
      [
        "Ġten",
        "th"
      ],
      [
        "Ġflock",
        "s"
      ],
      [
        "Ġhill",
        "s"
      ],
      [
        "Ġprof",
        "an"
      ],
      [
        "ĠHeb",
        "ron"
      ],
      [
        "Ã",
        "¦"
      ],
      [
        "Ġc",
        "ou"
      ],
      [
        "ve",
        "re"
      ],
      [
        "ĠM",
        "ighty"
      ],
      [
        "ĠW",
        "ill"
      ],
      [
        "Ġsh",
        "out"
      ],
      [
        "os",
        "h"
      ],
      [
        "Ġat",
        "t"
      ],
      [
        "Ġwr",
        "ite"
      ],
      [
        "Ġbelieve",
        "th"
      ],
      [
        "iz",
        "ed"
      ],
      [
        "Ġrel",
        "igion"
      ],
      [
        "s",
        "ue"
      ],
      [
        "th",
        "eless"
      ],
      [
        "Ġb",
        "it"
      ],
      [
        "Ġb",
        "est"
      ],
      [
        "Ġm",
        "ale"
      ],
      [
        "on",
        "t"
      ],
      [
        "Ġbe",
        "at"
      ],
      [
        "Ġl",
        "ast"
      ],
      [
        "Ġt",
        "aught"
      ],
      [
        "ar",
        "ies"
      ],
      [
        "ĠH",
        "an"
      ],
      [
        "ri",
        "ah"
      ],
      [
        "Ġyou",
        "th"
      ],
      [
        "ĠW",
        "ise"
      ],
      [
        "Ġne",
        "ck"
      ],
      [
        "Ġwhere",
        "fore"
      ],
      [
        "ĠR",
        "am"
      ],
      [
        "ĠJe",
        "z"
      ],
      [
        "Ġex",
        "cept"
      ],
      [
        "Ġjudg",
        "ed"
      ],
      [
        "Ġbow",
        "ed"
      ],
      [
        "Ġprophes",
        "y"
      ],
      [
        "Ġstrang",
        "er"
      ],
      [
        "Ġvi",
        "ol"
      ],
      [
        "Ġexal",
        "ted"
      ],
      [
        "Ġvan",
        "ity"
      ],
      [
        "u",
        "al"
      ],
      [
        "Ġo",
        "ath"
      ],
      [
        "Ġf",
        "ow"
      ],
      [
        "is",
        "s"
      ],
      [
        "Ġc",
        "ed"
      ],
      [
        "Ġd",
        "run"
      ],
      [
        "ar",
        "i"
      ],
      [
        "ĠH",
        "ad"
      ],
      [
        "ĠS",
        "elah"
      ],
      [
        "Ġtheir",
        "s"
      ],
      [
        "Ġv",
        "ic"
      ],
      [
        "res",
        "h"
      ],
      [
        "ĠR",
        "es"
      ],
      [
        "Ġr",
        "is"
      ],
      [
        "Ġprom",
        "ised"
      ],
      [
        "Ġram",
        "s"
      ],
      [
        "Ġstra",
        "ight"
      ],
      [
        "ĠV",
        "erily"
      ],
      [
        "Ġrepro",
        "ach"
      ],
      [
        "ĠChald",
        "eans"
      ],
      [
        "m",
        "uch"
      ],
      [
        "Ġs",
        "hi"
      ],
      [
        "Ġw",
        "eak"
      ],
      [
        "Ġh",
        "ither"
      ],
      [
        "to",
        "w"
      ],
      [
        "Ġf",
        "ought"
      ],
      [
        "Ġd",
        "ro"
      ],
      [
        "an",
        "iah"
      ],
      [
        "ce",
        "ived"
      ],
      [
        "Ġre",
        "ason"
      ],
      [
        "em",
        "ber"
      ],
      [
        "be",
        "it"
      ],
      [
        "Ġdest",
        "ruction"
      ],
      [
        "Ġplea",
        "sure"
      ],
      [
        "Ġbelong",
        "eth"
      ],
      [
        "Ġconsum",
        "ed"
      ],
      [
        "e",
        "ld"
      ],
      [
        "x",
        "ed"
      ],
      [
        "Ġc",
        "ru"
      ],
      [
        "ĠL",
        "eb"
      ],
      [
        "ere",
        "r"
      ],
      [
        "ind",
        "er"
      ],
      [
        "Ġgreat",
        "ly"
      ],
      [
        "Ġdea",
        "lt"
      ],
      [
        "ĠZ",
        "er"
      ],
      [
        "ound",
        "ed"
      ],
      [
        "Ġsc",
        "att"
      ],
      [
        "Ġkind",
        "ness"
      ],
      [
        "Ġfool",
        "ish"
      ],
      [
        "Ġcompass",
        "ion"
      ],
      [
        "Ġproc",
        "laim"
      ],
      [
        "I",
        "f"
      ],
      [
        "d",
        "ay"
      ],
      [
        "m",
        "s"
      ],
      [
        "Ġb",
        "ird"
      ],
      [
        "ĠA",
        "ra"
      ],
      [
        "Ġto",
        "o"
      ],
      [
        "Ġwh",
        "ite"
      ],
      [
        "Ġha",
        "p"
      ],
      [
        "ow",
        "ed"
      ],
      [
        "ĠH",
        "ear"
      ],
      [
        "Ġre",
        "sp"
      ],
      [
        "Ġbro",
        "ke"
      ],
      [
        "ach",
        "er"
      ],
      [
        "ĠK",
        "ing"
      ],
      [
        "Ġba",
        "pt"
      ],
      [
        "ĠAm",
        "or"
      ],
      [
        "Ġhar",
        "d"
      ],
      [
        "Ġforg",
        "ot"
      ],
      [
        "ĠEli",
        "jah"
      ],
      [
        "Ġcompan",
        "y"
      ],
      [
        "Ġfur",
        "y"
      ],
      [
        "Ġact",
        "s"
      ],
      [
        "f",
        "ast"
      ],
      [
        "t",
        "le"
      ],
      [
        "Ġw",
        "ings"
      ],
      [
        "Ġw",
        "ond"
      ],
      [
        "Ġm",
        "ention"
      ],
      [
        "Ġd",
        "ry"
      ],
      [
        "Ġin",
        "qu"
      ],
      [
        "as",
        "much"
      ],
      [
        "Ġe",
        "le"
      ],
      [
        "ru",
        "st"
      ],
      [
        "ĠFor",
        "giving"
      ],
      [
        "Ġsm",
        "itten"
      ],
      [
        "Ġcapt",
        "ive"
      ],
      [
        "Ġabund",
        "ance"
      ],
      [
        "Ġchur",
        "ch"
      ],
      [
        "ĠElea",
        "zar"
      ],
      [
        "Ġrememb",
        "rance"
      ],
      [
        "Ġinterp",
        "ret"
      ],
      [
        "Ġshi",
        "eld"
      ],
      [
        "e",
        "vil"
      ],
      [
        "Ġb",
        "ount"
      ],
      [
        "Ġre",
        "ckon"
      ],
      [
        "ĠW",
        "ith"
      ],
      [
        "ĠP",
        "ro"
      ],
      [
        "ĠC",
        "ome"
      ],
      [
        "Ġli",
        "ken"
      ],
      [
        "Ġex",
        "ec"
      ],
      [
        "ng",
        "ed"
      ],
      [
        "Ġspeak",
        "eth"
      ],
      [
        "Ġgold",
        "en"
      ],
      [
        "Ġru",
        "le"
      ],
      [
        "Ġforg",
        "et"
      ],
      [
        "Ġinc",
        "ense"
      ],
      [
        "Ġsacrif",
        "ices"
      ],
      [
        "Ġsk",
        "in"
      ],
      [
        "Ġfors",
        "aken"
      ],
      [
        "ĠTru",
        "th"
      ],
      [
        "ĠIsh",
        "m"
      ],
      [
        "ĠLeb",
        "an"
      ],
      [
        "v",
        "y"
      ],
      [
        "id",
        "er"
      ],
      [
        "ĠM",
        "er"
      ],
      [
        "il",
        "k"
      ],
      [
        "Ġse",
        "eth"
      ],
      [
        "Ġar",
        "ise"
      ],
      [
        "aught",
        "er"
      ],
      [
        "Ġpre",
        "cious"
      ],
      [
        "Ġgu",
        "ilt"
      ],
      [
        "Ġfl",
        "our"
      ],
      [
        "Ġpur",
        "su"
      ],
      [
        "Ġter",
        "ror"
      ],
      [
        "Ġprof",
        "it"
      ],
      [
        "Ġbit",
        "ter"
      ],
      [
        "ĠLeban",
        "on"
      ],
      [
        ")",
        "?"
      ],
      [
        "c",
        "us"
      ],
      [
        "f",
        "ully"
      ],
      [
        "m",
        "aid"
      ],
      [
        "n",
        "ah"
      ],
      [
        "t",
        "rees"
      ],
      [
        "Ġw",
        "ea"
      ],
      [
        "Ġh",
        "y"
      ],
      [
        "is",
        "es"
      ],
      [
        "ĠA",
        "t"
      ],
      [
        "Ġp",
        "ar"
      ],
      [
        "Ġp",
        "our"
      ],
      [
        "Ġto",
        "w"
      ],
      [
        "it",
        "ion"
      ],
      [
        "Ġg",
        "re"
      ],
      [
        "Ġg",
        "ift"
      ],
      [
        "Ġhe",
        "ight"
      ],
      [
        "ro",
        "ad"
      ],
      [
        "ain",
        "ed"
      ],
      [
        "ven",
        "ed"
      ],
      [
        "ho",
        "od"
      ],
      [
        "Ġear",
        "ly"
      ],
      [
        "Ġsu",
        "m"
      ],
      [
        "Ġpr",
        "ide"
      ],
      [
        "Ġser",
        "ved"
      ],
      [
        "Ġdea",
        "l"
      ],
      [
        "ĠAb",
        "imelech"
      ],
      [
        "Ġtre",
        "es"
      ],
      [
        "Ġmo",
        "on"
      ],
      [
        "ĠShe",
        "chem"
      ],
      [
        "Ġpain",
        "ful"
      ],
      [
        "Ġdist",
        "ress"
      ],
      [
        "Ġprosp",
        "er"
      ],
      [
        "a",
        "im"
      ],
      [
        "a",
        "ce"
      ],
      [
        "x",
        "t"
      ],
      [
        "Ġb",
        "and"
      ],
      [
        "Ġf",
        "eared"
      ],
      [
        "it",
        "ing"
      ],
      [
        "ĠL",
        "ot"
      ],
      [
        "Ġup",
        "ward"
      ],
      [
        "Ġthere",
        "with"
      ],
      [
        "ven",
        "g"
[...]
